'<pad>_'
'<EOS>_'
'the_'
', _'
'. _'
'and_'
'to_'
'a_'
'of_'
'is_'
'i_'
'it_'
'in_'
'._'
'that_'
'this_'
'not_'
'for_'
'you_'
'with_'
'as_'
'on_'
'_'
'but_'
'are_'
'have_'
'was_'
'be_'
'book_'
's_'
'will_'
'my_'
'or_'
'if_'
'one_'
'all_'
'from_'
'at_'
'he_'
'an_'
'so_'
'they_'
'his_'
'do_'
'more_'
'by_'
'would_'
'there_'
'like_'
'her_'
'about_'
'can_'
'what_'
'just_'
'has_'
'out_'
'me_'
'who_'
'some_'
': _'
'up_'
'when_'
'your_'
'she_'
'their_'
'very_'
'; _'
'which_'
'good_'
'no_'
'we_'
'time_'
'also_'
'get_'
'than_'
'other_'
';_'
'how_'
'had_'
'am_'
'only_'
'them_'
'even_'
'does_'
'much_'
'great_'
'well_'
'read_'
'really_'
'did_'
'story_'
'into_'
'these_'
'were_'
'because_'
'could_'
'way_'
'!_'
'been_'
'then_'
'most_'
'! _'
'? _'
'love_'
'any_'
'ing_'
'first_'
'many_'
'make_'
'see_'
'still_'
'its_'
'new_'
'too_'
'after_'
'people_'
'think_'
'life_'
'ed_'
'use_'
'd_'
'know_'
'two_'
'those_'
'now_'
'work_'
'back_'
'while_'
'want_'
'us_'
'better_'
'little_'
'over_'
'e_'
'him_'
'best_'
'y_'
'should_'
'through_'
'where_'
'find_'
'being_'
'..._'
'may_'
'go_'
'own_'
'2_'
'never_'
'film_'
'end_'
'off_'
'characters_'
'here_'
'another_'
'our_'
'cannot_'
'world_'
'5_'
'made_'
'need_'
'again_'
'both_'
'3_'
'such_'
'series_'
'things_'
'books_'
'down_'
'though_'
'same_'
'something_'
'before_'
'say_'
'few_'
'take_'
'game_'
'going_'
'each_'
'right_'
':_'
'why_'
'lot_'
'years_'
'bit_'
'reading_'
'4_'
'movie_'
'without_'
'34_'
'long_'
't_'
'1_'
'every_'
'give_'
'feel_'
'review_'
'enough_'
'man_'
'thing_'
'makes_'
'part_'
'however_'
'author_'
'look_'
'found_'
'music_'
'between_'
'might_'
'  _'
'used_'
'... _'
'set_'
'es_'
'come_'
'around_'
'recommend_'
'since_'
'ever_'
'last_'
'r_'
'different_'
'real_'
'able_'
'stars_'
'day_'
'sure_'
'n_'
'times_'
'put_'
'album_'
'case_'
'bad_'
'point_'
'buy_'
'character_'
'far_'
'old_'
'sound_'
'next_'
'always_'
'once_'
'less_'
'keep_'
'got_'
'yet_'
',_'
'quite_'
'novel_'
'actually_'
'?_'
'hard_'
'help_'
'using_'
'quality_'
'seems_'
'o_'
'must_'
'away_'
'works_'
'probably_'
'worth_'
'quot_'
'nice_'
'overall_'
'easy_'
'fact_'
'big_'
'looking_'
'product_'
'done_'
'pretty_'
'place_'
'song_'
'interesting_'
'having_'
'er_'
'fun_'
'said_'
'others_'
'three_'
'price_'
'family_'
'least_'
'thought_'
'almost_'
'comes_'
'especially_'
'everything_'
'rather_'
'power_'
'nothing_'
'play_'
'writing_'
'let_'
'anything_'
'history_'
'small_'
'anyone_'
'show_'
'second_'
'problem_'
'written_'
'side_'
'hope_'
'high_'
'together_'
'reader_'
'getting_'
'true_'
'full_'
'light_'
'version_'
'ly_'
'left_'
'home_'
'try_'
'although_'
'until_'
'excellent_'
'war_'
'making_'
'definitely_'
'believe_'
'whole_'
'highly_'
'mind_'
'money_'
'original_'
'kind_'
'enjoy_'
'experience_'
'amazon_'
'year_'
'maybe_'
'live_'
'ng_'
'someone_'
'god_'
'instead_'
'perfect_'
'short_'
'course_'
'top_'
'either_'
'line_'
'dvd_'
'l_'
'trying_'
'often_'
'finally_'
'job_'
'start_'
'along_'
'young_'
'already_'
'plot_'
'takes_'
'during_'
'6_'
'm_'
'readers_'
'stories_'
'phone_'
'gets_'
'simply_'
'felt_'
'songs_'
'important_'
'given_'
'understand_'
'free_'
'change_'
'sense_'
'person_'
'past_'
'loved_'
'tell_'
'heart_'
'action_'
'days_'
'several_'
'issues_'
'star_'
'fine_'
'pages_'
'seem_'
'information_'
'chapter_'
'later_'
'doing_'
'under_'
'10_'
'system_'
'page_'
'perhaps_'
'happy_'
'screen_'
'watch_'
'learn_'
'reason_'
'become_'
'7_'
'fans_'
'seen_'
'scenes_'
'wanted_'
'8_'
'men_'
'c_'
'future_'
'against_'
'yes_'
'turn_'
'order_'
'else_'
'came_'
'style_'
'truly_'
'everyone_'
'etc_'
'itself_'
'easily_'
'sometimes_'
'black_'
'problems_'
'goes_'
'strong_'
'water_'
'fan_'
'camera_'
'ones_'
'death_'
'g_'
'cover_'
'tv_'
'p_'
'ending_'
'human_'
'hand_'
'american_'
'children_'
'needs_'
'unit_'
'romance_'
'cd_'
'friends_'
'took_'
'features_'
'video_'
'track_'
'note_'
'final_'
'issue_'
'myself_'
'main_'
'level_'
'clear_'
'beautiful_'
'shows_'
'couple_'
'authors_'
'words_'
'box_'
'personal_'
'house_'
'head_'
'certainly_'
'favorite_'
'woman_'
'number_'
'half_'
'wrong_'
'idea_'
'wish_'
'including_'
'enjoyed_'
'care_'
'completely_'
'within_'
'minutes_'
'rs_'
'wonderful_'
'night_'
'amazing_'
'example_'
'four_'
'women_'
'run_'
'lost_'
'liked_'
'himself_'
'gives_'
'yourself_'
'reviews_'
'ers_'
'lives_'
'looks_'
'relationship_'
'rest_'
'support_'
'0_'
'available_'
'battery_'
'scene_'
'deal_'
'dark_'
'working_'
'close_'
'device_'
'special_'
'based_'
'matter_'
'playing_'
'went_'
'open_'
'update_'
'hours_'
'games_'
'films_'
'simple_'
'early_'
'age_'
'hear_'
'wait_'
'12_'
'add_'
'view_'
'means_'
'face_'
'picture_'
'above_'
'single_'
'band_'
'fit_'
'says_'
'al_'
'throughout_'
'stuff_'
'five_'
'name_'
'x_'
'call_'
'voice_'
'told_'
'control_'
'entire_'
'john_'
'needed_'
'type_'
'h_'
'despite_'
'whether_'
'performance_'
'piece_'
'parts_'
'included_'
'leave_'
'kids_'
'ways_'
'room_'
'today_'
'white_'
'business_'
'hold_'
'9_'
'possible_'
'taking_'
'material_'
'large_'
'son_'
'longer_'
'difficult_'
'tried_'
'coming_'
'wants_'
'copy_'
'write_'
'girl_'
'recommended_'
'word_'
'called_'
'expect_'
'thinking_'
'complete_'
'release_'
'themselves_'
'u_'
'major_'
'k_'
'bottom_'
'body_'
'fast_'
'hot_'
'behind_'
'forward_'
'collection_'
'beginning_'
'sounds_'
'volume_'
'due_'
'school_'
'friend_'
'drive_'
'size_'
'bought_'
'child_'
'classic_'
'computer_'
'movies_'
'art_'
'please_'
'b_'
'value_'
'mean_'
'played_'
'mr_'
'move_'
'inside_'
'father_'
'stop_'
'service_'
'design_'
'questions_'
'living_'
'stand_'
'save_'
' ... _'
'8217_'
'guy_'
'interested_'
'feeling_'
'return_'
'started_'
'opinion_'
'rock_'
'points_'
'mystery_'
'plus_'
'feels_'
'giving_'
'8220_'
'worked_'
'check_'
'certain_'
'sex_'
'title_'
'purchase_'
'quickly_'
'solid_'
'feature_'
'low_'
'truth_'
'remember_'
'list_'
'extra_'
'heard_'
'gave_'
'front_'
'interest_'
'software_'
'alone_'
'company_'
'soon_'
'happen_'
'modern_'
'months_'
'dead_'
'food_'
'group_'
'red_'
'role_'
'mother_'
'setting_'
'knows_'
'happened_'
'taken_'
'eyes_'
'absolutely_'
'tracks_'
'cut_'
'oh_'
'similar_'
'ns_'
'space_'
'rating_'
'lack_'
'ys_'
'process_'
'tale_'
'player_'
'8221_'
'color_'
'disc_'
'general_'
'events_'
'form_'
'running_'
'sort_'
'st_'
'section_'
'third_'
'bring_'
'ness_'
'listen_'
'seemed_'
'pick_'
'moments_'
'audio_'
'exactly_'
'fall_'
'guess_'
'likely_'
'watching_'
'20_'
'hit_'
'cost_'
'previous_'
'country_'
'mentioned_'
'clearly_'
'wife_'
'pay_'
'huge_'
'various_'
'...._'
'question_'
'king_'
'cool_'
'choice_'
'follow_'
'ability_'
'city_'
'unique_'
'poor_'
'text_'
'beyond_'
'car_'
'upon_'
'buying_'
'known_'
'le_'
'extremely_'
'historical_'
'fully_'
'knew_'
'serious_'
'further_'
'100_'
'funny_'
'ends_'
'touch_'
'led_'
'season_'
'hands_'
'air_'
'powerful_'
'de_'
'ms_'
'deep_'
'f_'
'stay_'
'cast_'
'figure_'
'becomes_'
'card_'
'honest_'
'particular_'
'fiction_'
'herself_'
'received_'
'machine_'
'consider_'
'edition_'
'button_'
'language_'
'attention_'
'fire_'
'slow_'
'kept_'
'usb_'
'understanding_'
'plan_'
'ts_'
'particularly_'
'30_'
'ion_'
'across_'
'middle_'
'chance_'
'details_'
'clean_'
'saw_'
'science_'
'key_'
'chapters_'
'amount_'
'ideas_'
'happens_'
'addition_'
'guide_'
'parents_'
'present_'
'church_'
'state_'
'research_'
'mention_'
'useful_'
'english_'
'among_'
'nature_'
'political_'
'provide_'
'ago_'
'seeing_'
'provides_'
'model_'
'somewhat_'
'turns_'
'include_'
'uses_'
'moment_'
'unless_'
'provided_'
'recording_'
'detail_'
'heavy_'
'turned_'
'lots_'
'subject_'
'conclusion_'
'quick_'
'ies_'
'focus_'
'notes_'
'evil_'
'lead_'
'plastic_'
'jesus_'
'usually_'
'bag_'
'program_'
'current_'
'ok_'
'kindle_'
'outside_'
'awesome_'
'anyway_'
'novels_'
'area_'
'moving_'
'talk_'
'os_'
'fantastic_'
'create_'
'journey_'
'weight_'
'christian_'
'en_'
'continue_'
'saying_'
'gone_'
'fight_'
'battle_'
'cable_'
'writer_'
'mostly_'
'totally_'
'ic_'
'dr_'
'emotional_'
'wonder_'
'faith_'
'period_'
'unfortunately_'
'social_'
'ons_'
'difference_'
'added_'
'windows_'
'boy_'
'store_'
'learning_'
'entertaining_'
'late_'
'disappointed_'
'online_'
'except_'
'customer_'
'helpful_'
'products_'
'near_'
'minor_'
'decent_'
'nearly_'
'enjoyable_'
'slightly_'
'hair_'
'older_'
'otherwise_'
'baby_'
'week_'
'sweet_'
'guitar_'
'content_'
'whatever_'
'missing_'
'15_'
'guys_'
'fantasy_'
'america_'
'break_'
'range_'
'includes_'
'result_'
'standard_'
'actual_'
'terms_'
'pain_'
've_'
'mode_'
'helps_'
'plenty_'
'doubt_'
'society_'
'knowledge_'
'step_'
'perfectly_'
'states_'
'charge_'
'eventually_'
'effort_'
'connection_'
'albums_'
'released_'
'none_'
'message_'
'humor_'
'became_'
'thank_'
'reality_'
'pictures_'
'ask_'
'following_'
'spend_'
'development_'
'century_'
'whose_'
'involved_'
'plays_'
'earlier_'
'changes_'
'results_'
'common_'
'miss_'
'record_'
'expected_'
'.. _'
'public_'
'situation_'
'pieces_'
'cheap_'
'background_'
'test_'
'cause_'
'basic_'
'z_'
'horror_'
'w_'
'mine_'
'tells_'
'50_'
'daughter_'
'created_'
'fascinating_'
'realize_'
'rate_'
'potential_'
'blue_'
'rich_'
'approach_'
'culture_'
'learned_'
'nor_'
'lines_'
'offers_'
'offer_'
'market_'
'allow_'
'soul_'
'keyboard_'
'indeed_'
'greatest_'
'act_'
'audience_'
'effects_'
'changed_'
'expensive_'
'hate_'
'hero_'
'study_'
'town_'
'easier_'
'production_'
'metal_'
'data_'
'earth_'
'date_'
'trust_'
'wrote_'
'personally_'
'dog_'
'brought_'
're_'
'ie_'
'thanks_'
'obviously_'
'places_'
'government_'
'media_'
'natural_'
'share_'
'talking_'
'total_'
'blood_'
'magic_'
'compared_'
'weeks_'
'land_'
'supposed_'
'starts_'
'higher_'
'glad_'
'ready_'
'team_'
'towards_'
'imagine_'
'keeps_'
'seriously_'
'local_'
'advice_'
'bible_'
'ultimately_'
'musical_'
'jack_'
'v_'
'ce_'
'episode_'
'class_'
'genre_'
'photos_'
'finds_'
'fairly_'
'pop_'
'paper_'
'normal_'
'positive_'
'te_'
'build_'
'thus_'
'appreciate_'
'answer_'
'per_'
'career_'
'brings_'
'memory_'
'field_'
'., _'
'la_'
'shot_'
'spent_'
'radio_'
'success_'
'force_'
'listening_'
'image_'
'elements_'
'telling_'
'husband_'
'account_'
'james_'
'speed_'
'girls_'
'11_'
'filled_'
'internet_'
'finish_'
'appears_'
'effect_'
'finding_'
'handle_'
'suggest_'
'ble_'
'adventure_'
'worse_'
'depth_'
'obvious_'
'complex_'
'reasons_'
'digital_'
'minute_'
'acting_'
'ended_'
'players_'
'perspective_'
'brilliant_'
'fear_'
'leaves_'
'die_'
'secret_'
'purpose_'
'wall_'
'ne_'
'choose_'
'feelings_'
'forget_'
'eye_'
'sets_'
'hour_'
'david_'
'waiting_'
'sad_'
'considering_'
'willing_'
'health_'
'brother_'
'search_'
'movement_'
'larger_'
'average_'
'option_'
'necessary_'
'road_'
'kill_'
'dialogue_'
'edge_'
'keeping_'
'super_'
'narrative_'
'familiar_'
'green_'
'coffee_'
'decided_'
'press_'
'mark_'
'begin_'
'reviewed_'
'annoying_'
'website_'
'bonus_'
'worst_'
'avoid_'
'basically_'
'built_'
'remote_'
'pull_'
'.  _'
'additional_'
'vs_'
'13_'
'cold_'
'web_'
'limited_'
'lose_'
'energy_'
'looked_'
'building_'
'romantic_'
'print_'
'master_'
'drama_'
'theme_'
'lyrics_'
'meet_'
'mix_'
'hell_'
'lens_'
'trouble_'
'purchased_'
'ation_'
'stick_'
'.._'
'position_'
'agree_'
'party_'
'military_'
'era_'
'starting_'
'murder_'
'individual_'
'helped_'
'14_'
'ss_'
'michael_'
'putting_'
'laptop_'
'opening_'
'beat_'
'surprised_'
'adult_'
'practice_'
'thoughts_'
'door_'
'allows_'
'fair_'
'feet_'
'loves_'
'female_'
'access_'
'spirit_'
'bass_'
'straight_'
'published_'
'sexual_'
'ii_'
'source_'
'immediately_'
'detailed_'
'members_'
'comfortable_'
'via_'
'law_'
'loss_'
'skin_'
'ous_'
'com_'
'french_'
'okay_'
'apart_'
'tone_'
'smart_'
'ten_'
'negative_'
'effective_'
'travel_'
'six_'
'ted_'
'app_'
'lower_'
'wanting_'
'episodes_'
'regular_'
'knowing_'
'brand_'
'ry_'
'ty_'
'possibly_'
'settings_'
'multiple_'
'introduction_'
'devices_'
'el_'
'tool_'
'designed_'
'writes_'
'batteries_'
'meant_'
'attempt_'
'replacement_'
'prefer_'
'j_'
'manual_'
'strength_'
'length_'
'cases_'
'broken_'
'paid_'
'begins_'
'mouse_'
'covers_'
'month_'
'self_'
'switch_'
'ring_'
'taste_'
'professional_'
'western_'
'specific_'
'boys_'
'religious_'
'match_'
'presented_'
'carry_'
'students_'
'apparently_'
'evidence_'
'base_'
'eat_'
'whom_'
'examples_'
'bluray_'
'office_'
'pc_'
'beauty_'
'center_'
'exciting_'
'gods_'
'walk_'
'bed_'
'popular_'
'respect_'
'ipad_'
'crazy_'
'strange_'
'table_'
'safe_'
'ride_'
'ground_'
'options_'
'speak_'
'direction_'
'meaning_'
'director_'
'score_'
'toward_'
'honestly_'
'contains_'
'required_'
'levels_'
'wide_'
'concept_'
'aside_'
'commentary_'
'item_'
'writers_'
'solution_'
'actions_'
'fresh_'
'!!_'
'display_'
'unlike_'
'paul_'
'forever_'
'surprise_'
'british_'
'showing_'
'fix_'
'marriage_'
'fighting_'
'appear_'
'successful_'
'recent_'
'dream_'
'onto_'
'actors_'
'asked_'
'gift_'
' , _'
'smaller_'
'dry_'
'sleep_'
'sides_'
'instructions_'
'nt_'
'reference_'
'violence_'
'areas_'
'ity_'
'versions_'
'impossible_'
'relationships_'
'user_'
'ton_'
'll_'
'aspect_'
'physical_'
'sorry_'
'comments_'
'40_'
'flat_'
'explain_'
'peace_'
'died_'
'reach_'
'library_'
'grow_'
'sister_'
'notice_'
'realistic_'
'decision_'
'technology_'
'remove_'
'ling_'
'christmas_'
'wireless_'
'oil_'
'theory_'
'tablet_'
'network_'
'bar_'
'hoping_'
'trip_'
'loud_'
'decide_'
'site_'
'piano_'
'sent_'
'experiences_'
'community_'
'win_'
'board_'
'pg_'
'continues_'
'tries_'
'aware_'
'performances_'
'leaving_'
'balance_'
'stage_'
'hopefully_'
'entirely_'
'16_'
'!! _'
'forced_'
'description_'
'suspense_'
'25_'
'impact_'
'held_'
'compelling_'
'setup_'
'images_'
'christ_'
'creative_'
'wear_'
'send_'
'connect_'
'seat_'
'incredible_'
'facts_'
'finished_'
'directly_'
'daily_'
'dance_'
'aspects_'
'terrible_'
'killed_'
'moves_'
'turning_'
'items_'
'ian_'
'00_'
'considered_'
'twice_'
'recipes_'
'recorded_'
'tion_'
'york_'
'described_'
'pass_'
'pack_'
'it8217_'
'george_'
'hd_'
'cat_'
'remains_'
'neither_'
'sequel_'
'i8217_'
'surface_'
'correct_'
'japanese_'
'sit_'
'discussion_'
'spiritual_'
'developed_'
'somehow_'
'admit_'
'choices_'
'biggest_'
'heat_'
'buttons_'
'noticed_'
'experienced_'
'street_'
'west_'
'brief_'
'vocals_'
'leads_'
'speakers_'
'alive_'
'emotions_'
'therefore_'
'lord_'
'famous_'
'literally_'
'adds_'
'former_'
'cute_'
'covered_'
'robert_'
'typical_'
'male_'
'ings_'
'worthy_'
'noise_'
'000_'
'connected_'
'bright_'
'ya_'
'seconds_'
'credit_'
'ship_'
'weak_'
'apple_'
'religion_'
'project_'
'crime_'
'creating_'
'news_'
'cup_'
'mans_'
'headphones_'
'calls_'
'waste_'
'traditional_'
'skills_'
'push_'
'german_'
'summer_'
'essential_'
'justice_'
'usual_'
'!!!_'
'deserves_'
'answers_'
'pace_'
'sony_'
'soft_'
'generally_'
'engaging_'
'lived_'
'pair_'
'opportunity_'
'format_'
'port_'
'speaker_'
'reviewers_'
'missed_'
'killer_'
'mary_'
'college_'
'files_'
'ball_'
'8211_'
'double_'
'se_'
'ment_'
'flaws_'
'ahead_'
'replace_'
'becoming_'
'pro_'
'install_'
'plug_'
'warranty_'
'fits_'
'training_'
'function_'
'boring_'
'protect_'
'cards_'
'tools_'
'kid_'
'glass_'
'ds_'
'package_'
'accurate_'
'storyline_'
'began_'
'sitting_'
'greater_'
'police_'
'holds_'
'falls_'
'pure_'
'below_'
'constantly_'
'passion_'
' ..._'
'ls_'
'desire_'
'runs_'
'rare_'
'names_'
'luck_'
'flash_'
'hurt_'
'brothers_'
'hits_'
'brain_'
'path_'
'iphone_'
'entertainment_'
'drop_'
'floor_'
'comedy_'
'variety_'
'lady_'
'bill_'
'situations_'
'talent_'
'holding_'
'changing_'
'joy_'
';, _'
'bigger_'
'folks_'
'twist_'
'tough_'
'sell_'
'cons_'
'slowly_'
'sexy_'
'warm_'
'les_'
'shown_'
'numbers_'
'mac_'
'impressive_'
'singing_'
'security_'
'growing_'
'insight_'
'discover_'
'treatment_'
'gold_'
'tension_'
'loving_'
'artist_'
'um_'
'nicely_'
'accept_'
'separate_'
'intended_'
'united_'
'allowed_'
'beautifully_'
'stuck_'
'universe_'
'peter_'
'na_'
'ultimate_'
'ions_'
'photo_'
'failed_'
'risk_'
'impressed_'
'wood_'
'solo_'
'wild_'
'types_'
'tiny_'
'printer_'
'generation_'
'faster_'
'throw_'
'analysis_'
'challenge_'
'critical_'
'shipping_'
'significant_'
'email_'
'caught_'
'race_'
'post_'
'heroine_'
'ting_'
'roll_'
'younger_'
'loose_'
'technical_'
'followed_'
'reviewer_'
'ors_'
'context_'
'incredibly_'
'epic_'
'regarding_'
'click_'
'kit_'
'recently_'
'odd_'
'morning_'
'benefit_'
'met_'
'th_'
'born_'
'event_'
'response_'
'17_'
'dangerous_'
'thin_'
'speaking_'
'manner_'
'ch_'
'intense_'
'exchange_'
'ey_'
'outstanding_'
'videos_'
'contemporary_'
'superb_'
'freedom_'
'properly_'
'grace_'
'summary_'
'ate_'
'closer_'
'topic_'
'studio_'
'behavior_'
'leading_'
'core_'
'twists_'
'horrible_'
'practical_'
'rules_'
'reads_'
'extras_'
'careful_'
'national_'
'wars_'
'ia_'
'recordings_'
'ear_'
'bands_'
'lights_'
'colors_'
'quiet_'
'china_'
'comparison_'
'struggle_'
'moved_'
'references_'
'vision_'
'charger_'
'ally_'
'mixed_'
'doctor_'
'spot_'
'forces_'
'stands_'
'appeal_'
'literature_'
'comment_'
'concerned_'
'graphics_'
'tom_'
'army_'
'politics_'
'lies_'
'drawn_'
'claims_'
'escape_'
'steps_'
'secrets_'
'ice_'
'joe_'
'hidden_'
'president_'
'contact_'
'18_'
'code_'
'60_'
'laugh_'
'memorable_'
'fill_'
'relatively_'
'download_'
'tight_'
'likes_'
'flow_'
'deeper_'
'comic_'
'currently_'
'stupid_'
'related_'
'smooth_'
'dreams_'
'artists_'
'south_'
'sold_'
'deeply_'
'anywhere_'
'americans_'
'moral_'
'realized_'
'pocket_'
'!!! _'
'named_'
'visit_'
'dealing_'
'suspect_'
'stone_'
'pleased_'
'shame_'
'claim_'
'sing_'
'attack_'
'cord_'
'monitor_'
'satisfying_'
'explains_'
'gotten_'
'remain_'
'according_'
'wise_'
'sees_'
'vampire_'
'produced_'
'models_'
'ar_'
'address_'
'andor_'
'afraid_'
'sections_'
'charging_'
'worlds_'
'television_'
'lee_'
'puts_'
'descriptions_'
'mission_'
'thinks_'
'editing_'
'adding_'
'happening_'
'humans_'
'frame_'
'adapter_'
'originally_'
'trilogy_'
'richard_'
'anymore_'
'conflict_'
'gun_'
'hollywood_'
'intriguing_'
'valuable_'
'apps_'
'themes_'
'router_'
'tend_'
'et_'
'weird_'
'thomas_'
'meets_'
'pleasure_'
'link_'
'somewhere_'
'ism_'
'file_'
'regardless_'
'club_'
'barely_'
'pressure_'
'literary_'
'.... _'
'google_'
'publisher_'
'requires_'
'ps_'
'worry_'
'strongly_'
'treat_'
'lovely_'
'ess_'
'adults_'
'married_'
'sharp_'
'yeah_'
'companies_'
'ra_'
'numerous_'
'proper_'
'appropriate_'
'complaint_'
'besides_'
'upgrade_'
'personality_'
'groups_'
'serve_'
'ray_'
'ages_'
'decisions_'
'dramatic_'
'jewish_'
'student_'
'ancient_'
'sons_'
'hearing_'
'eating_'
'ge_'
'opinions_'
'tips_'
'bluetooth_'
'nd_'
'hole_'
'inner_'
'require_'
'resolution_'
'users_'
'que_'
'documentary_'
'cleaning_'
'diet_'
'sources_'
'brown_'
'id_'
'scale_'
'saved_'
'fell_'
'tea_'
'sun_'
'industry_'
'improve_'
'lessons_'
'education_'
'mount_'
'foot_'
'walking_'
'chinese_'
'cy_'
'gain_'
'round_'
'forth_'
'seven_'
'harry_'
'scientific_'
'intelligent_'
'info_'
'bottle_'
'tape_'
'24_'
'ful_'
'dogs_'
'prior_'
'bother_'
'3d_'
'rights_'
'lets_'
'wow_'
'expectations_'
'economic_'
'danger_'
'environment_'
'thoroughly_'
'expecting_'
'damage_'
'survive_'
'actor_'
'count_'
'wondering_'
'stock_'
'discovered_'
'develop_'
'healthy_'
'extended_'
'protection_'
'falling_'
'sea_'
'advanced_'
'map_'
'direct_'
'influence_'
'listed_'
'thriller_'
'filter_'
'wifi_'
'heroes_'
'jazz_'
'systems_'
'warning_'
'memories_'
'believable_'
'sadly_'
'describes_'
'compare_'
'inch_'
'dust_'
'shape_'
'apply_'
'dollars_'
'alternative_'
'supporting_'
'views_'
'topics_'
'bob_'
'trade_'
'central_'
'cross_'
'offered_'
'45_'
'capable_'
'jews_'
'ans_'
'birth_'
'promise_'
'suddenly_'
'cheaper_'
' _'
'explanation_'
'prove_'
'killing_'
'tales_'
'raw_'
'installed_'
'resources_'
'vocal_'
'placed_'
'mess_'
'method_'
'lovers_'
'previously_'
'planet_'
'ist_'
'term_'
'blues_'
'ipod_'
'north_'
'acute_'
'lock_'
'99_'
'constant_'
'draw_'
'prepared_'
'explained_'
'medical_'
'fat_'
'families_'
'efforts_'
'extreme_'
'stated_'
'latest_'
'hardly_'
'records_'
'equally_'
'lt_'
'zed_'
'shots_'
'window_'
'island_'
'caused_'
'catch_'
'financial_'
'helping_'
'advantage_'
'200_'
'label_'
'8230_'
'ley_'
'tech_'
'suppose_'
'queen_'
'leaders_'
'mental_'
'tune_'
'animals_'
'drives_'
'goal_'
'max_'
'ive_'
'exercise_'
'techniques_'
'phones_'
'instance_'
'surprisingly_'
'knife_'
'selling_'
'samsung_'
'teaching_'
'factor_'
'degree_'
'failure_'
'stopped_'
'importance_'
'clever_'
'rated_'
'informative_'
'teach_'
'fault_'
'christians_'
'ck_'
'releases_'
'growth_'
'civil_'
'viewing_'
'member_'
'inspired_'
'ups_'
'powers_'
'complicated_'
'orchestra_'
'debut_'
'william_'
'controls_'
'carefully_'
'describe_'
'budget_'
'providing_'
'prose_'
'exist_'
'ordered_'
'returned_'
'blade_'
'enemy_'
'focused_'
'rise_'
'basis_'
'angle_'
'wind_'
'units_'
'matters_'
'grand_'
'bunch_'
'reminds_'
'pros_'
'comfort_'
'catholic_'
'improved_'
'featuring_'
'mysterious_'
'jump_'
' ._'
'heads_'
'costs_'
'superior_'
'script_'
'train_'
'fail_'
'wisdom_'
'mistake_'
'noted_'
'values_'
'transfer_'
'disappointing_'
'ran_'
'losing_'
'appearance_'
'sky_'
'receive_'
'attempts_'
'lacking_'
'individuals_'
'asking_'
'driving_'
'philosophy_'
'england_'
'manages_'
'skip_'
'friendship_'
'bond_'
'visual_'
'arms_'
'follows_'
'breaking_'
'nation_'
'ine_'
'terrific_'
'removed_'
'europe_'
'menu_'
'cell_'
'plans_'
'keys_'
'imagination_'
'plain_'
'improvement_'
'canon_'
'ourselves_'
'london_'
'picked_'
'showed_'
'masterpiece_'
'unexpected_'
'replaced_'
'smith_'
'frank_'
'combination_'
'23_'
'errors_'
'da_'
'revealed_'
'monster_'
'teacher_'
'spending_'
'initial_'
';. _'
'graphic_'
'presence_'
'decades_'
'holes_'
'managed_'
'fly_'
'rarely_'
'mom_'
'intelligence_'
'holy_'
'motion_'
'emotion_'
'programs_'
'kitchen_'
'introduced_'
'miles_'
'cultural_'
'recognize_'
'element_'
'satisfied_'
'presents_'
'hey_'
'merely_'
'concepts_'
'attached_'
'jane_'
'frustrating_'
'bringing_'
'fixed_'
'proof_'
'private_'
'paranormal_'
'purchasing_'
'pad_'
'roles_'
'storage_'
'iron_'
'dvds_'
'fish_'
'leader_'
'2013_'
'lesson_'
'studies_'
'ties_'
'surprising_'
'latter_'
'cameras_'
'humanity_'
'ears_'
'paying_'
'maps_'
'sm_'
'standing_'
'elsewhere_'
'structure_'
'watched_'
'wearing_'
'favor_'
'external_'
'welcome_'
'majority_'
'occasionally_'
'ent_'
'titles_'
'marketing_'
'circumstances_'
'toy_'
'contrast_'
'tears_'
'heaven_'
'!  _'
'interviews_'
'cds_'
'planning_'
'silly_'
'million_'
'genius_'
'henry_'
'letters_'
'stereo_'
'customers_'
'moon_'
'remarkable_'
'mistakes_'
'rule_'
'90_'
'signal_'
'calling_'
'insights_'
'surely_'
'21_'
'jones_'
'produce_'
'suffering_'
'normally_'
'relate_'
'presentation_'
'friendly_'
'updated_'
'tour_'
'absolute_'
'ad_'
'awful_'
'challenges_'
'subtle_'
'mood_'
'won_'
'enter_'
'curious_'
'android_'
'shoot_'
'policy_'
'cry_'
'harder_'
'thrown_'
'confusing_'
'shooting_'
'stronger_'
'vacuum_'
'soundtrack_'
' . . . _'
'soldiers_'
'broke_'
'lay_'
'concert_'
'mouth_'
'hearts_'
'management_'
'headset_'
'primary_'
'safety_'
'ant_'
'internal_'
'chose_'
'ish_'
'ghost_'
'abuse_'
'prevent_'
'frequently_'
'forgotten_'
'brush_'
'fashion_'
'lucky_'
'thick_'
'application_'
'hilarious_'
'2nd_'
'touching_'
'talks_'
'don_'
'interview_'
'amp_'
'acts_'
'scott_'
'steel_'
'2012_'
'necessarily_'
'depending_'
'tic_'
'prime_'
'reasonable_'
'error_'
'explore_'
'grade_'
'figures_'
'dropped_'
'happiness_'
'gaming_'
'fails_'
'fate_'
'rough_'
'crew_'
'saving_'
'east_'
'sam_'
'cooking_'
'adjust_'
'location_'
'lie_'
'ink_'
'load_'
'quest_'
'fellow_'
'differences_'
'lover_'
'belief_'
'relevant_'
'hs_'
'gospel_'
'determined_'
'closed_'
'everyday_'
'smile_'
'childhood_'
'workout_'
'magical_'
'ac_'
'greatly_'
'\u_'
'angry_'
'exact_'
'hundred_'
'pulled_'
'voices_'
'ridiculous_'
'essentially_'
'todays_'
'animal_'
' : _'
'tree_'
'achieve_'
'useless_'
'distance_'
'park_'
'drug_'
'sensitive_'
'ks_'
'tested_'
'wire_'
'rubber_'
'driven_'
'tired_'
'regret_'
'dying_'
'conversation_'
'edit_'
'cars_'
'letter_'
'combat_'
'connections_'
'argument_'
'slight_'
'international_'
'closing_'
'talented_'
'evolution_'
'drink_'
'empire_'
'burn_'
'task_'
'shop_'
'attitude_'
'solve_'
'blog_'
'treated_'
'dirty_'
'capture_'
'charles_'
'court_'
'unusual_'
'rose_'
'battles_'
'hardware_'
'equipment_'
'wheel_'
'status_'
'existence_'
'meeting_'
'bear_'
'empty_'
'grew_'
'passed_'
'progress_'
'continued_'
'scary_'
'poorly_'
'handy_'
'don8217_'
'active_'
'van_'
'ma_'
'sign_'
'spanish_'
'exception_'
'believes_'
'35_'
'universal_'
'publishing_'
'mass_'
'report_'
'random_'
'university_'
'ideal_'
'confused_'
'electric_'
'tip_'
'emotionally_'
'opera_'
'bike_'
'martin_'
'false_'
'global_'
'weapons_'
'highest_'
'breaks_'
'opened_'
'favorites_'
'enemies_'
'strategy_'
'mainly_'
'shoes_'
'smell_'
'usa_'
' . _'
'creation_'
'allowing_'
'secondary_'
'impression_'
'identity_'
'bits_'
'increase_'
'dad_'
'ins_'
'biblical_'
'angel_'
'output_'
'unable_'
'steve_'
'creates_'
'manage_'
'cs_'
'interface_'
'cutting_'
'seek_'
'ease_'
'fathers_'
'strap_'
'target_'
'performed_'
'ier_'
'complaints_'
'chemistry_'
'violent_'
'owned_'
'clip_'
'mad_'
'lacks_'
'delivers_'
'raised_'
'packaging_'
'ingredients_'
'excited_'
'portable_'
'tons_'
'minds_'
'tragedy_'
'fingers_'
'equal_'
'80_'
'struggles_'
'sounding_'
'countries_'
'ot_'
'biography_'
'station_'
'adventures_'
'criticism_'
'understood_'
'bags_'
'....._'
'gorgeous_'
'est_'
'sales_'
'select_'
'arc_'
'cycle_'
'specifically_'
'healing_'
'dedicated_'
'served_'
'zero_'
'grab_'
'seemingly_'
'disappointment_'
'reminded_'
'packed_'
'returns_'
'figured_'
'causes_'
'recommendation_'
'illustrations_'
'challenging_'
'standards_'
'string_'
'appreciated_'
'hdmi_'
'judge_'
'darkness_'
'discs_'
'protector_'
'stunning_'
'paint_'
'quote_'
'500_'
'copies_'
'beach_'
'hopes_'
'index_'
'cats_'
'arm_'
'chorus_'
'skill_'
'initially_'
'shared_'
'christianity_'
'corner_'
'dont_'
'concern_'
'genuine_'
'driver_'
'suggests_'
'statement_'
'spring_'
'taught_'
'installment_'
'opposite_'
'peoples_'
'editor_'
'symphony_'
'organization_'
'channel_'
'screw_'
'beliefs_'
'gs_'
'jim_'
'assume_'
'selection_'
'russian_'
'worthwhile_'
'gay_'
'mini_'
'capacity_'
'survival_'
'sh_'
'firmware_'
'correctly_'
'picking_'
'letting_'
'bucks_'
'revolution_'
'alien_'
'conditions_'
'breath_'
'deals_'
'golden_'
'offering_'
'charming_'
'wealth_'
'ford_'
'courage_'
'charged_'
'portion_'
'eight_'
'investment_'
'quotes_'
'backup_'
'neck_'
'clock_'
'honor_'
'sports_'
'hook_'
'tragic_'
'theater_'
'seeking_'
'supply_'
' :_'
'volumes_'
'slide_'
'pan_'
'19_'
'sin_'
'recipe_'
'overly_'
'kinds_'
'largely_'
'appeared_'
'fourth_'
'encourage_'
'ingly_'
'flying_'
'singer_'
'prince_'
'consequences_'
'min_'
'directions_'
'unknown_'
'rain_'
'thousands_'
'22_'
'pen_'
'silver_'
'mm_'
'cook_'
'winter_'
'march_'
'refreshing_'
'shelf_'
'80s_'
'sisters_'
'jobs_'
'repeat_'
'ke_'
'faces_'
'condition_'
'whenever_'
'bridge_'
'reveal_'
'net_'
'functions_'
'blame_'
'regard_'
'painful_'
'leadership_'
'legal_'
'attractive_'
'casual_'
'campaign_'
'foreign_'
'grown_'
'resource_'
'footage_'
'sick_'
'everywhere_'
'nce_'
'heck_'
'trial_'
'photographs_'
'boss_'
'river_'
'nevertheless_'
'grip_'
'involving_'
'deliver_'
'sharing_'
'measure_'
'balanced_'
'atmosphere_'
'ter_'
'chris_'
'importantly_'
'2010_'
'scifi_'
'native_'
'sequence_'
'hall_'
'detective_'
'finger_'
'duty_'
'benefits_'
'responsible_'
'receiver_'
'300_'
'wonderfully_'
'2011_'
'parent_'
'flawed_'
'secure_'
'innocent_'
'hanging_'
'tes_'
'ignore_'
'forms_'
'ee_'
'returning_'
'passages_'
'perform_'
'cal_'
'learns_'
'meat_'
'effectively_'
'methods_'
'legs_'
'ben_'
'enjoying_'
'weather_'
'stress_'
'wake_'
'premise_'
'horse_'
'sugar_'
'difficulty_'
'professor_'
'hang_'
'sts_'
'gb_'
'accessible_'
'mothers_'
'exercises_'
'predictable_'
'3rd_'
'villain_'
'nonetheless_'
'mature_'
'apparent_'
'scope_'
'overcome_'
'serves_'
'camp_'
'mike_'
'tank_'
'lifetime_'
'gps_'
'cancer_'
'winner_'
'believed_'
'sarah_'
'japan_'
'anger_'
'seller_'
'deserve_'
'zombie_'
'flavor_'
'translation_'
'principles_'
'foods_'
'entry_'
'arguments_'
'independent_'
'cream_'
'finale_'
'mysteries_'
'asks_'
'vivid_'
'sight_'
'combined_'
'nobody_'
'massive_'
'shut_'
'em_'
'encounter_'
'lists_'
'proves_'
'chair_'
'drugs_'
'gas_'
'ze_'
'foundation_'
'nowhere_'
'hooked_'
'dragon_'
'nick_'
'ugly_'
'pleasant_'
'dynamic_'
'naturally_'
'lid_'
'milk_'
'lly_'
'expressed_'
'silent_'
'pot_'
'materials_'
'sum_'
'purposes_'
'ha_'
'desk_'
'chosen_'
'zing_'
'55_'
'lastly_'
'hundreds_'
'convinced_'
'uk_'
'teen_'
'tradition_'
'belt_'
'primarily_'
'classical_'
'rush_'
'shock_'
'ging_'
'flaw_'
'snow_'
'frankly_'
'disturbing_'
'victims_'
'automatically_'
'opposed_'
'elizabeth_'
'controller_'
'sings_'
'destroy_'
'bs_'
'maker_'
'pet_'
'european_'
'occasional_'
'printed_'
'accounts_'
'carrying_'
'mountain_'
'serial_'
'cuts_'
'sentence_'
'sturdy_'
'department_'
'logic_'
'2008_'
'70_'
'concerning_'
'captain_'
'prison_'
'decides_'
'speaks_'
'input_'
'construction_'
'newer_'
'wash_'
'classics_'
'testament_'
'featured_'
'crisis_'
'ordinary_'
'vampires_'
'rd_'
'op_'
'medium_'
'arrived_'
'disney_'
'everybody_'
'developing_'
'contain_'
'cables_'
'searching_'
'comprehensive_'
'ned_'
'vast_'
'crap_'
'prices_'
'disease_'
'storm_'
'reaction_'
'france_'
'shadow_'
'interpretation_'
'cash_'
'awkward_'
'mrs_'
'installation_'
'testing_'
'join_'
'plugged_'
'services_'
'ments_'
'gameplay_'
'zoom_'
'explaining_'
'hip_'
'vol_'
'maintain_'
'consistent_'
'facing_'
'activities_'
'projects_'
'charm_'
'legend_'
'agent_'
'repair_'
'giant_'
'sample_'
'convenient_'
'kiss_'
'blow_'
'economy_'
'seasons_'
'hood_'
'williams_'
'captured_'
'alex_'
'roman_'
'ical_'
'co_'
'ying_'
'disk_'
'kick_'
'discussed_'
'germany_'
'youth_'
'virtually_'
'viewer_'
'granted_'
'circle_'
'posted_'
'inches_'
'hp_'
'clothes_'
'remaining_'
'strings_'
'!, _'
'clarity_'
'affect_'
'extraordinary_'
'partner_'
'technique_'
'fortunately_'
'con_'
'bound_'
'youtube_'
'xbox_'
'raise_'
'hill_'
'mp3_'
'memoir_'
'june_'
'gear_'
'opens_'
'ay_'
'passing_'
'winning_'
'ut_'
'gentle_'
'attraction_'
'wellwritten_'
'happily_'
'urban_'
'delightful_'
'command_'
'steam_'
'revenge_'
'temperature_'
'movements_'
'subjects_'
'activity_'
'marks_'
'block_'
'!. _'
'patient_'
'reveals_'
'sale_'
'convincing_'
'stays_'
'manufacturer_'
'beats_'
'treasure_'
'arts_'
'israel_'
'johnny_'
'creatures_'
'jackson_'
'computers_'
'confidence_'
'concerns_'
'praise_'
'storytelling_'
'interests_'
'anne_'
'kate_'
'logical_'
'edited_'
'ping_'
'demons_'
'oz_'
'victim_'
'stephen_'
'badly_'
'der_'
'chase_'
'ah_'
'union_'
'psychological_'
'blind_'
'defense_'
'prayer_'
'investigation_'
'paris_'
'non_'
'screws_'
'discusses_'
'lewis_'
'expert_'
'microsoft_'
'companion_'
'southern_'
'sake_'
'panel_'
'conclusions_'
'handled_'
'billy_'
'official_'
'creepy_'
'teachers_'
'extensive_'
'vci_'
'you8217_'
'unnecessary_'
'leather_'
'upper_'
'enjoyment_'
'suggestions_'
'musicians_'
'ner_'
'reliable_'
'gonna_'
'updates_'
'overview_'
'laid_'
'dull_'
'guns_'
'suffer_'
'hat_'
'extent_'
'suggested_'
'bread_'
'sed_'
'describing_'
'compact_'
'wet_'
'iness_'
'ens_'
'owner_'
'greek_'
'viewers_'
'ta_'
'glory_'
'fabulous_'
'lp_'
'flight_'
'boot_'
'bet_'
'drivers_'
'kingdom_'
'hide_'
'electronic_'
'ballad_'
'intellectual_'
'repeated_'
'nine_'
'passionate_'
'california_'
'ves_'
'tony_'
'ated_'
'adam_'
'realizes_'
'discuss_'
'craft_'
'proud_'
'nations_'
'factory_'
'spread_'
'rescue_'
'portrait_'
'mobile_'
'spots_'
'portrayed_'
'zone_'
'ously_'
'ex_'
'artwork_'
'ill_'
'uncomfortable_'
'checking_'
'legacy_'
'spite_'
'un_'
'academic_'
'italian_'
'1st_'
'responsibility_'
'im_'
'faced_'
'polish_'
'hunter_'
'till_'
'decade_'
'climax_'
'supernatural_'
'solutions_'
'busy_'
'inspiration_'
'bush_'
'flip_'
'documents_'
'birds_'
'poetry_'
'burning_'
'angels_'
'tunes_'
'wedding_'
'edges_'
'pacing_'
'heavily_'
'narrator_'
'drawing_'
'indian_'
'ding_'
'rid_'
'exceptional_'
'sd_'
'focuses_'
'trailer_'
'ports_'
'devoted_'
'utterly_'
'yellow_'
'ur_'
'laws_'
'damn_'
'humorous_'
'versus_'
'scripture_'
'paced_'
'competition_'
'commercial_'
'aid_'
'affair_'
'boat_'
'reread_'
'alternate_'
'pink_'
'federal_'
'abilities_'
'shift_'
'goals_'
'threat_'
'texas_'
'teeth_'
'inspiring_'
'frustrated_'
'joke_'
'bodies_'
'2009_'
'finest_'
'credits_'
'liner_'
'degrees_'
'rings_'
'kings_'
'blend_'
'bank_'
'persons_'
'joseph_'
'woods_'
'ro_'
'spoilers_'
'75_'
'printing_'
'ny_'
'devil_'
'operation_'
'lighter_'
'population_'
'critics_'
'stretch_'
'attacks_'
'instant_'
'mirror_'
'corporate_'
'complain_'
'pulling_'
'possibility_'
'washington_'
'protagonist_'
'discovery_'
'lol_'
'applied_'
'70s_'
'delivery_'
'rear_'
'walls_'
'gem_'
'frustration_'
'bird_'
'applications_'
'souls_'
'folk_'
'dollar_'
'thoughtful_'
'stops_'
'schools_'
'delivered_'
'dirt_'
'ance_'
'hated_'
'committed_'
'charlie_'
'root_'
'reached_'
'tt_'
'directed_'
'appealing_'
'pushing_'
'teens_'
'hint_'
'practices_'
'april_'
'delight_'
'batman_'
'didn8217_'
'pump_'
'identify_'
'lighting_'
'contents_'
'suit_'
'alike_'
'hospital_'
'drinking_'
'magazine_'
'auto_'
'successfully_'
'los_'
'fallen_'
'il_'
'insightful_'
'formula_'
'owners_'
'express_'
'brutal_'
'laughing_'
'crash_'
'wasted_'
'lifestyle_'
'ram_'
'harsh_'
'worried_'
'20th_'
'sites_'
'readable_'
'stores_'
'beings_'
'tall_'
'ft_'
'mere_'
'trail_'
'sequences_'
'rolling_'
'roots_'
'instrumental_'
'fights_'
'coverage_'
'usage_'
'booklet_'
'daniel_'
'debate_'
'mic_'
'messages_'
'machines_'
'cares_'
'witty_'
'dies_'
'beware_'
'wrapped_'
'staff_'
'organized_'
'2007_'
'patience_'
'drops_'
'iii_'
'wrap_'
'india_'
'ps3_'
'relief_'
'kinda_'
'highlights_'
'cap_'
'shall_'
'fears_'
'als_'
'resolved_'
'plane_'
'anybody_'
'feed_'
'causing_'
'mentions_'
'ations_'
'refund_'
'garden_'
'guard_'
'definition_'
'confident_'
'melody_'
'guides_'
'gore_'
'touches_'
'plate_'
'ized_'
'thankfully_'
'soviet_'
'ky_'
'layer_'
'square_'
'accident_'
'acceptable_'
'surprises_'
'fitting_'
'speech_'
'ngs_'
'bars_'
'san_'
'sheer_'
'profound_'
'shine_'
'engaged_'
'crowd_'
'prepare_'
'shares_'
'destruction_'
'7'
'revelation_'
'damaged_'
'bored_'
'amusing_'
'poignant_'
'sacrifice_'
'hence_'
'sending_'
'royal_'
'ler_'
'cliffhanger_'
'6'
'dinner_'
'caring_'
'sorts_'
'galaxy_'
'advance_'
'mate_'
'defective_'
'theology_'
'highlight_'
'darker_'
'photography_'
'32_'
'vietnam_'
'sleeping_'
'shorter_'
'2014_'
'fictional_'
'doctors_'
'listened_'
'desktop_'
'ca_'
'anna_'
'tied_'
'tie_'
'ff_'
'childrens_'
'55'
'differently_'
'sized_'
'height_'
'twenty_'
'thorough_'
'slower_'
'functionality_'
'alarm_'
'wave_'
'sounded_'
'deleted_'
'authentic_'
'remind_'
'disaster_'
'ka_'
'boyfriend_'
'struggling_'
'emphasis_'
'unlikely_'
'brave_'
'animation_'
'rice_'
'afford_'
'tax_'
'glimpse_'
'durable_'
'exists_'
'surrounding_'
'trek_'
'edward_'
'whereas_'
'baseball_'
'tends_'
'guessing_'
'wine_'
'desperate_'
'lcd_'
'drums_'
'ces_'
'priced_'
'shocking_'
'covering_'
'supported_'
'ell_'
'july_'
'ary_'
'spare_'
'repetitive_'
'neat_'
'exposed_'
'hoped_'
'essay_'
'salt_'
'pride_'
'suicide_'
'resistance_'
'ow_'
'conversations_'
'shake_'
'disagree_'
'brands_'
'hotel_'
'authority_'
'carried_'
'wolf_'
'excitement_'
'styles_'
'pattern_'
'reflect_'
'rushed_'
'nes_'
'millions_'
'acoustic_'
'guilty_'
'established_'
'daughters_'
'12'
'deadly_'
'yearold_'
'anime_'
'ladies_'
'firm_'
'zombies_'
'dancing_'
'region_'
'intrigue_'
'insert_'
'surround_'
'cake_'
'q_'
'beloved_'
'8'
'instantly_'
'hunt_'
'captures_'
'tribute_'
'touched_'
'bw_'
'meanwhile_'
'subtitles_'
'landscape_'
'teenage_'
'adams_'
'spectacular_'
'tests_'
'pool_'
'endless_'
'puzzle_'
'limit_'
'instruments_'
'dual_'
'ships_'
'ron_'
'fame_'
'magnificent_'
'supposedly_'
'contained_'
'award_'
'eric_'
'category_'
'intensity_'
'shoulder_'
'spin_'
'ory_'
'4'
'ide_'
'fairy_'
'stayed_'
'noticeable_'
'dan_'
'princess_'
'fields_'
'1'
'route_'
'jason_'
'communication_'
'rb_'
'junk_'
'occur_'
'girlfriend_'
'personalities_'
'aka_'
'brian_'
'typically_'
'60'
'monsters_'
'directors_'
'grows_'
'depression_'
'actress_'
'titled_'
'qualities_'
'bugs_'
'patterns_'
'pushed_'
'associated_'
'shell_'
'trick_'
'destroyed_'
'generations_'
'compatible_'
'witch_'
'gate_'
'colorful_'
'haunting_'
'somebody_'
'reputation_'
'preferred_'
'9'
'ied_'
'catchy_'
'vehicle_'
'meal_'
'links_'
'8212_'
'locations_'
'accomplished_'
'counter_'
'stream_'
'can8217_'
'loaded_'
'criminal_'
'iraq_'
'wii_'
'chicken_'
'portrayal_'
'ham_'
'accepted_'
'continuing_'
'boxes_'
'witness_'
'medicine_'
'fake_'
'tag_'
'species_'
'argue_'
'recall_'
'ard_'
'marry_'
'handles_'
'rhythm_'
'fought_'
'liberal_'
'traveling_'
'shopping_'
'inexpensive_'
'chocolate_'
'bruce_'
'streets_'
'suffered_'
'closely_'
'2000_'
'wit_'
'ol_'
'bell_'
'americas_'
'terror_'
'weapon_'
'evening_'
'comics_'
'dozen_'
'charts_'
'publishers_'
'concerto_'
'essays_'
'ics_'
'educational_'
'fabric_'
'bang_'
'outcome_'
'400_'
'programming_'
'determine_'
'convince_'
'physics_'
'village_'
'theories_'
'28_'
'ely_'
'pointed_'
'ians_'
'tim_'
'reduce_'
'discovers_'
'davis_'
'manager_'
'spoiler_'
'creativity_'
'pin_'
'concludes_'
'on'
'serving_'
'paragraph_'
'excuse_'
'ty'
'2006_'
'lands_'
'profile_'
'channels_'
'significantly_'
'bothered_'
'mid'
'existing_'
'villains_'
'plots_'
'johnson_'
'dig_'
'ruin_'
'mail_'
'0'
'informed_'
'rocks_'
'soap_'
'gray_'
'guilt_'
'advertising_'
'sword_'
'pounds_'
'ir_'
'eastern_'
'consumer_'
'limitations_'
'alice_'
'demand_'
'tear_'
'ann_'
'ning_'
'911_'
'mainstream_'
'holiday_'
'masters_'
'officer_'
'motor_'
'cally_'
'sink_'
'advertised_'
'essence_'
'philosophical_'
'draws_'
'artistic_'
'focusing_'
'substance_'
'stood_'
'hose_'
'yoga_'
'26_'
'adequate_'
'snap_'
'sensor_'
'citizens_'
'thousand_'
'limits_'
'desired_'
'theatrical_'
'sand_'
'cinema_'
'chances_'
'guest_'
'beatles_'
'ative_'
'8216_'
'rick_'
'meaningful_'
'bowl_'
'gen_'
'2005_'
'pulls_'
'leg_'
'texts_'
'server_'
'loses_'
'rachel_'
'grasp_'
'row_'
'punch_'
'doors_'
'math_'
'confusion_'
'tube_'
'saga_'
'repeatedly_'
'grateful_'
'engine_'
'cloud_'
'africa_'
'ts'
'soldier_'
'buck_'
'24'
'unfortunate_'
'physically_'
'solved_'
'teaches_'
'guarantee_'
'split_'
'organic_'
'composer_'
'chicago_'
'classes_'
'you'
'drum_'
'bly_'
'reasonably_'
'occurred_'
'notch_'
'conservative_'
'360_'
'lonely_'
'ver_'
'albeit_'
'september_'
'consistently_'
'simon_'
'builds_'
'ware_'
'chain_'
'producer_'
'erotic_'
'writings_'
'shines_'
'picks_'
'gripping_'
'sticks_'
'lake_'
'clips_'
'cities_'
'bizarre_'
'crisp_'
'chief_'
'alot_'
'staying_'
'painting_'
'wheels_'
'object_'
'operating_'
'bloody_'
'50'
'tra'
'reduced_'
'thrilling_'
'shed_'
'lying_'
'drag_'
'practically_'
'dated_'
'talked_'
'riding_'
'ists_'
'wonders_'
'rent_'
'lenses_'
'sympathetic_'
'shower_'
'gang_'
'grey_'
'consciousness_'
'passage_'
'lit_'
'lift_'
'fox_'
'delicious_'
'overwhelming_'
'collectors_'
'articles_'
'article_'
'ng'
'december_'
'signs_'
'life'
'grant_'
'planned_'
'demon_'
'stable_'
'tab_'
'nazi_'
'affected_'
'deaths_'
'engage_'
'stones_'
'exploration_'
'animated_'
'instruction_'
'scientists_'
'depends_'
'. :_'
'compilation_'
'shocked_'
'tray_'
'10'
'good'
'wilson_'
'uncle_'
'steal_'
'minimal_'
'dress_'
'ryan_'
'seal_'
'logitech_'
'3'
'dare_'
'ably_'
'taylor_'
'pray_'
'routine_'
'tastes_'
'promises_'
'me'
'dear_'
'bones_'
'garbage_'
'ensure_'
'sudden_'
'streaming_'
'amy_'
'cleaner_'
'dock_'
'default_'
'rely_'
'ically_'
'victory_'
'perfection_'
'grave_'
'succeed_'
'october_'
'60s_'
'ny'
'relative_'
'trash_'
'spends_'
'broad_'
'glasses_'
'27_'
'juice_'
'30'
'involves_'
'tions_'
'workers_'
'nights_'
'aliens_'
'son'
'appreciation_'
'experiment_'
'objective_'
'wing_'
'strip_'
'redemption_'
'panasonic_'
'miller_'
'clues_'
'strike_'
'extension_'
'yard_'
'removing_'
'multiplayer_'
'execution_'
'swing_'
'cure_'
'document_'
'alpha_'
'locked_'
'consideration_'
'basics_'
'toys_'
'august_'
'pp_'
'checked_'
'slip_'
'scratch_'
'answered_'
'nuclear_'
'listener_'
'drew_'
'nuts_'
'kevin_'
'twisted_'
'forgive_'
'foam_'
'bone_'
'honesty_'
'exploring_'
'eve_'
'fold_'
'complexity_'
'bedroom_'
'45'
'shipped_'
'explanations_'
'components_'
'maximum_'
'conspiracy_'
'intimate_'
'influenced_'
'session_'
'scared_'
'attempting_'
'amazed_'
'addressed_'
'selected_'
'dealt_'
'jokes_'
'divine_'
'ger_'
'res_'
'shadows_'
'bobby_'
'november_'
'interaction_'
'functional_'
'150_'
'inevitable_'
'increasingly_'
'warned_'
'tly_'
'revealing_'
'recognized_'
'positions_'
'thread_'
'territory_'
'jr_'
'hiding_'
'rising_'
'labor_'
'embrace_'
'proven_'
'increased_'
'subsequent_'
'respond_'
'opportunities_'
'netflix_'
'trees_'
'silence_'
'scan_'
'crystal_'
'grief_'
'down'
'chaos_'
'spoil_'
'weekend_'
'lin_'
'lesser_'
'january_'
'transition_'
'protective_'
'audiences_'
'performing_'
'goodness_'
'gifts_'
'additionally_'
'odds_'
'matt_'
'nasty_'
'it'
'ip_'
'singles_'
'reports_'
'encounters_'
'layers_'
'sand'
'by'
'ure_'
'reset_'
'upset_'
'holder_'
'crimes_'
'ss'
'researched_'
'ken_'
'jerry_'
'hardcore_'
'slim_'
'shoe_'
'doesn8217_'
'commitment_'
'unbelievable_'
'interactions_'
'singers_'
'quirky_'
'bold_'
'orange_'
'ney_'
'objects_'
'forgot_'
'patients_'
'epilogue_'
'compassion_'
'95_'
'rooms_'
'violin_'
'stars'
'sung_'
'slot_'
'sat_'
'similarly_'
'remastered_'
'hitler_'
'briefly_'
'hints_'
'charges_'
'apartment_'
'ignored_'
'console_'
'20'
'dislike_'
'regards_'
'phrase_'
'liking_'
'narrow_'
'demands_'
'throwing_'
'sentences_'
'spoke_'
'potentially_'
'hunting_'
'evident_'
'accuracy_'
'harmony_'
'listing_'
'dumb_'
'trap_'
'psychology_'
'om_'
'fruit_'
'headphone_'
'proved_'
'carries_'
'african_'
'ni_'
'defined_'
'time'
'observations_'
'steamy_'
'missions_'
'definitive_'
'earned_'
'asus_'
'nose_'
'nor'
'justify_'
'ion'
'ds'
'precious_'
'?, _'
'spoken_'
'myth_'
'1960s_'
'knight_'
'completed_'
'loyal_'
'journal_'
'v'
'sir_'
'sa_'
'plant_'
'deserved_'
'assembly_'
'lucy_'
'rack_'
'lincoln_'
'editions_'
'z'
'nas_'
'dave_'
'immediate_'
'statements_'
'outer_'
'warrior_'
'jake_'
'kennedy_'
'genuinely_'
'fifth_'
'ai_'
'possibilities_'
'lasts_'
'ges_'
'frequent_'
'captivating_'
'tower_'
'wishes_'
'regularly_'
'intro_'
'handling_'
'comparing_'
'amazingly_'
'chest_'
'29_'
'tremendous_'
'makers_'
'lbs_'
'viewed_'
'ming_'
'matches_'
'suggestion_'
'arthur_'
'fed_'
'oscar_'
'quit_'
'luke_'
'league_'
'ating_'
'feedback_'
'ea_'
'threads_'
'bad'
'fo'
'blades_'
'bargain_'
'property_'
'headed_'
'allen_'
'saves_'
'beast_'
'nts_'
'hitting_'
'tor_'
'legendary_'
'jimmy_'
'5'
'reflection_'
'40'
'addresses_'
'publication_'
'irish_'
'st'
'mediocre_'
'eternal_'
'wider_'
'realism_'
'cia_'
'one'
'farm_'
'definite_'
'crafted_'
'accessories_'
'entitled_'
'yours_'
'2004_'
'nightmare_'
'vintage_'
'strategies_'
'carpet_'
'dy_'
'cs'
'sheet_'
'noir_'
'centuries_'
'straightforward_'
'reaching_'
'promised_'
'den_'
'bay_'
'chuck_'
'estate_'
'racing_'
'cop_'
'knock_'
'fool_'
'finishing_'
'claimed_'
'low'
'generic_'
'whatsoever_'
'recovery_'
'supports_'
'percent_'
'murders_'
'choosing_'
'pilot_'
'lightweight_'
'spy_'
'russia_'
'90s_'
'trigger_'
'desert_'
'tender_'
'talents_'
'remembered_'
'murdered_'
'walks_'
'q'
'dish_'
'faithful_'
'miracle_'
'illness_'
'angst_'
'studying_'
'lo_'
'insane_'
'increasing_'
'flick_'
'encountered_'
'instrument_'
'torture_'
'boots_'
'vital_'
'thats_'
'urge_'
'aging_'
'sin'
'ries_'
'producers_'
'cups_'
'post'
'illustrated_'
'32'
'jeff_'
'mer_'
'accidentally_'
'spray_'
'executed_'
'dawn_'
'antenna_'
'emma_'
'cloth_'
'wealthy_'
'rs'
'host_'
'caution_'
'tad_'
'wished_'
'two'
'straps_'
'likable_'
'1970s_'
'resolve_'
'ought_'
'judgment_'
'ps'
'altogether_'
'admire_'
'bitter_'
'accomplish_'
'facebook_'
'dick_'
'wwii_'
'minimum_'
'discussing_'
'tap_'
'believing_'
'ocean_'
'expression_'
'jumping_'
'introduces_'
'poverty_'
'rates_'
'connector_'
'amounts_'
'modes_'
'underneath_'
'distant_'
'mini'
'mar'
'carter_'
'anderson_'
'germans_'
'flesh_'
'equivalent_'
'tomorrow_'
'shallow_'
';._'
'vhs_'
'razor_'
'ebook_'
'guitars_'
'football_'
'realm_'
'castle_'
'furthermore_'
'disclosure_'
'cult_'
'parties_'
'25'
'replacing_'
'achieved_'
'wires_'
'neighbors_'
'semi'
'des_'
'sufficient_'
'walked_'
'twilight_'
'dating_'
'plants_'
'cultures_'
'enjoys_'
'pads_'
'ass_'
'ws_'
'over'
'happier_'
'appendix_'
'lazy_'
'keeper_'
'elite_'
'tempo_'
'stellar_'
'needing_'
'marked_'
'filters_'
'experts_'
'banks_'
'contribution_'
'pause_'
'powered_'
'considerable_'
'cruel_'
'attach_'
'readings_'
'ye'
'shy_'
'desires_'
'struck_'
'liquid_'
'recommendations_'
'clue_'
'arrangement_'
'lean_'
'assuming_'
'up'
'heavier_'
'verse_'
'strengths_'
'manually_'
'ia'
'clothing_'
'alcohol_'
'worship_'
'of'
'visible_'
'ale'
'mounting_'
'radical_'
'civilization_'
'ster_'
'black'
'strikes_'
'pockets_'
'suffers_'
'pants_'
'litter_'
'creature_'
'thru_'
'luckily_'
'dean_'
'occurs_'
'novella_'
'love'
'resulting_'
'womens_'
'burned_'
'alan_'
'tre'
'heal_'
'displays_'
'wicked_'
'ratings_'
'mythology_'
'lasting_'
'kills_'
'filler_'
'capital_'
'discussions_'
'conventional_'
'brilliantly_'
'babies_'
'connecting_'
'ses_'
'lle_'
'handsome_'
'controlled_'
'collins_'
'blown_'
'separately_'
'houses_'
'gap_'
'wins_'
'moore_'
'lasted_'
'btw_'
'invested_'
'potter_'
'kin_'
'crucial_'
'amazons_'
'corners_'
'truths_'
'remained_'
'conflicts_'
'23'
'sleeve_'
'factors_'
'defeat_'
'calories_'
'substantial_'
'awhile_'
'arrive_'
'tent_'
'stranger_'
'paperback_'
'howard_'
'......_'
'tedious_'
'releasing_'
'rap_'
'beneath_'
'transformation_'
'located_'
'cheese_'
'penny_'
'loop_'
'identical_'
'head'
'vely_'
'smoke_'
'progressive_'
'refer_'
'pressing_'
'laughs_'
'vinyl_'
'io_'
'deck_'
'35'
'halfway_'
' .... _'
'franchise_'
'worn_'
'manufacturers_'
' ,_'
'thumb_'
'raising_'
'expense_'
'buried_'
'survived_'
'suitable_'
'scenario_'
'robin_'
'minded_'
'fancy_'
'half'
'dropping_'
'heartbreaking_'
'electronics_'
'dialog_'
'rome_'
'oven_'
'lyrical_'
'truck_'
'mat_'
'intuitive_'
'imagined_'
'origin_'
'ly'
'awareness_'
'coast_'
'fore'
'widescreen_'
'holmes_'
'par_'
'understandable_'
'kar'
'exposure_'
'micro_'
'elegant_'
'backing_'
'sessions_'
'trained_'
'intent_'
'forgiveness_'
'designs_'
'crying_'
'courtesy_'
'supplement_'
'custom_'
'ility_'
'gritty_'
'sucks_'
'harm_'
'priest_'
'reminder_'
'bare_'
'triangle_'
'pregnant_'
'forest_'
'cookbook_'
'capabilities_'
'demonstrates_'
'rip_'
'experiencing_'
'closest_'
'boy'
'ants_'
'andrew_'
'trips_'
'superman_'
'ily_'
'enormous_'
'pressed_'
'stomach_'
'marvel_'
'?. _'
'ever'
'notion_'
'mounted_'
'generous_'
'explored_'
'hers_'
'candy_'
'2003_'
'jennifer_'
'automatic_'
'weakness_'
'ruined_'
'naked_'
'back'
'tvs_'
'standalone_'
'organizations_'
'debt_'
'obama_'
'therapy_'
'mercy_'
'kelly_'
'stroller_'
'represent_'
'ded_'
'alert_'
'recognition_'
'jam_'
'hand'
'clo'
'4th_'
'packs_'
'invest_'
'ghosts_'
'chart_'
'attachment_'
'jacket_'
'browser_'
'contrary_'
'household_'
'switching_'
'scores_'
'desperately_'
'poetic_'
'islam_'
'wondered_'
'sticking_'
'inclusion_'
'terribly_'
'christopher_'
'bulb_'
'ongoing_'
'j'
'periods_'
'premium_'
'eys_'
'cinematography_'
'vitamin_'
'handed_'
'underground_'
'sha'
'receiving_'
'controversial_'
'underlying_'
'julia_'
'del_'
'virtual_'
'crack_'
'bus_'
'anthology_'
'torn_'
'addiction_'
'bulk_'
'han_'
'rape_'
'nikon_'
'ko_'
'dynamics_'
'gradually_'
'represents_'
'reminiscent_'
'mid_'
'slavery_'
'mild_'
'constructed_'
'steady_'
'harris_'
'es'
'curse_'
'ville_'
'efficient_'
'ou'
'mechanism_'
'builtin_'
'waited_'
'traffic_'
'poems_'
'handful_'
'marvelous_'
'listeners_'
'incident_'
'heart'
'xp_'
'slave_'
'shaped_'
'integrity_'
'colored_'
'1000_'
'bro'
'bathroom_'
'occasion_'
'narration_'
'firmly_'
'filmed_'
's34_'
'hammer_'
'economics_'
'eager_'
'21st_'
'trio_'
'hungry_'
'1980s_'
'expand_'
'sophisticated_'
'100'
'restaurant_'
'policies_'
'permanent_'
'appearances_'
'midnight_'
'microphone_'
'ight_'
'notable_'
'countless_'
'off'
'collections_'
'patrick_'
'makeup_'
'origins_'
'motivation_'
'fer'
'reported_'
'emily_'
'martial_'
'bite_'
'balls_'
'noble_'
'downloaded_'
'22'
'si_'
'louis_'
'gifted_'
'00'
'remake_'
'formed_'
'approaches_'
'relations_'
'di_'
'scholars_'
'satisfaction_'
'?  _'
'sizes_'
'romances_'
'distinct_'
'dc_'
'darn_'
'reactions_'
'installing_'
'dates_'
'container_'
'cant_'
'engineering_'
'ads_'
'beginners_'
'thrilled_'
'fundamental_'
'favourite_'
'f'
'academy_'
'profit_'
'ms'
'gene_'
'cheesy_'
'treats_'
'employees_'
'acceptance_'
'now'
'destiny_'
'communicate_'
'diverse_'
'11'
'reviewing_'
'book'
'rage_'
'ki_'
'w'
'administration_'
'poem_'
'lame_'
'filling_'
'agenda_'
'zation_'
'susan_'
'painted_'
'discovering_'
'33_'
'2001_'
'operate_'
'homes_'
'ele'
'existed_'
'platform_'
'childs_'
'contacted_'
'tactics_'
'speeds_'
'parallel_'
'mask_'
'gary_'
'diary_'
'component_'
'bin_'
'suspenseful_'
'disappoint_'
'poly'
'mann_'
'bottles_'
'ward_'
'that8217_'
'sonic_'
'satisfy_'
'fortune_'
'throws_'
'smoothly_'
'trapped_'
'hassle_'
'curve_'
'vacation_'
'bent_'
'abandoned_'
'typing_'
'shortcomings_'
'punk_'
'quartet_'
'loyalty_'
'layout_'
'jean_'
'hype_'
'nar'
'ities_'
'drill_'
'coat_'
'amongst_'
'tricks_'
'lengthy_'
'jo_'
'troops_'
'ff'
'dozens_'
'70'
'betrayal_'
'adjustment_'
'acid_'
'sits_'
'andy_'
'lisa_'
'labels_'
'timer_'
'lucas_'
'explores_'
'butter_'
'teams_'
'gained_'
'churches_'
'hunger_'
'matthew_'
'show'
'languages_'
'els_'
' !_'
'improvements_'
'berg_'
'absence_'
'va_'
'ons'
'distracting_'
'guidance_'
'develops_'
'27'
'stations_'
'gotta_'
'dell_'
'strongest_'
'salvation_'
'navy_'
'divorce_'
'request_'
'icon_'
'expanded_'
'clients_'
'26'
'suited_'
'cared_'
'attracted_'
'weaknesses_'
'tte_'
'waters_'
'ble'
'rewarding_'
'grill_'
'bla'
'static_'
'grass_'
'gel_'
'diamond_'
'bibliography_'
'sooner_'
'dot_'
'lee'
'kudos_'
'segment_'
'interior_'
'resist_'
'grain_'
'192'
'nails_'
'ial_'
'teenager_'
'pointing_'
'settle_'
'aa_'
'tones_'
'threw_'
'precise_'
'ize_'
'downside_'
'characterization_'
'affordable_'
'turner_'
'attempted_'
'sync_'
'needless_'
'mexico_'
'hesitate_'
'republic_'
'moreover_'
'introduce_'
'fire'
'dri'
'vary_'
'imagery_'
'screenplay_'
'scientist_'
'eddie_'
'dar'
'closes_'
'meter_'
'capability_'
'k'
'roger_'
'ire_'
'world'
'wishing_'
'failing_'
'ers'
'widely_'
'peak_'
'february_'
'containing_'
'beginner_'
'represented_'
'mis'
'ie'
'gently_'
'riveting_'
'dial_'
'latin_'
'belongs_'
'variations_'
'sis_'
'parker_'
'man'
'duke_'
'neil_'
'war'
'hing_'
'fastpaced_'
'annoyed_'
'aforementioned_'
'ross_'
'officers_'
'eggs_'
'bullet_'
'tasks_'
'oriented_'
'sells_'
'rob_'
'cardboard_'
'belong_'
' . . ._'
'florida_'
'bells_'
'habits_'
'28'
'valley_'
'tendency_'
'sub'
'ace_'
'cole_'
'reaches_'
'likeable_'
'ul_'
'indicate_'
'screaming_'
'conclude_'
'blast_'
'preference_'
'light'
'bomb_'
'600_'
'vit'
'micro'
'inspire_'
'depressing_'
'garage_'
'husbands_'
'ay'
'blu_'
'sadness_'
'roku_'
'protected_'
'misleading_'
'here'
'valid_'
'perspectives_'
'selfish_'
'likewise_'
'yn_'
'ped_'
'despair_'
'lane_'
'acted_'
'timeless_'
'stainless_'
'laura_'
'mo_'
'ph_'
'womans_'
'is'
'horn_'
'refers_'
'prints_'
'gems_'
'day'
'understands_'
'tracking_'
'roy_'
'ox_'
'enhanced_'
'achievement_'
'vulnerable_'
'principle_'
'laughed_'
'earn_'
'29'
'water'
'li_'
'ike_'
'power'
'fuel_'
'climate_'
'refuses_'
'oli'
'holocaust_'
'texture_'
'sunday_'
'ets_'
'red'
'simultaneously_'
'revolutionary_'
'medieval_'
'dishes_'
'descriptive_'
'big'
'scholarly_'
'fewer_'
'concise_'
'brightness_'
'vibrant_'
'sub_'
'refused_'
'kgharris_'
'ft'
'fighter_'
'alongside_'
'sor'
'politicians_'
'markets_'
'innovative_'
'indepth_'
'emergency_'
'palm_'
'closure_'
'ana_'
'triumph_'
'survivors_'
'outlet_'
'tripod_'
'hi_'
'den'
'th'
'bo_'
'angles_'
'pursuit_'
'pov_'
'an'
'aged_'
'technically_'
'gar'
'tablets_'
'dvd'
'democracy_'
'humble_'
'housing_'
'producing_'
'garmin_'
'comparable_'
'bend_'
'rounded_'
'lamp_'
'fbi_'
'sport_'
'purple_'
'promising_'
'morality_'
'flawless_'
'ear'
'mins_'
'flowers_'
'dro'
'reflects_'
'thirty_'
'ministry_'
'bu'
'screens_'
'imaginative_'
'calm_'
'1950s_'
'anthony_'
'pat_'
'dun'
'sion_'
'buddy_'
'integrated_'
'expansion_'
'developers_'
'wired_'
'ratio_'
'nd'
'ex'
'!!!!_'
'twelve_'
'flimsy_'
'overlooked_'
'convey_'
'alexander_'
'sacred_'
'intentions_'
'cleaned_'
'are'
'meditation_'
'gro'
'sensitivity_'
'roller_'
'long'
'intrigued_'
'newly_'
'cam_'
'bow_'
'theological_'
'spell_'
'ordering_'
'horses_'
'anniversary_'
'super'
'jordan_'
'itunes_'
'irritating_'
'solely_'
'readily_'
'precisely_'
'melodic_'
'fence_'
'scheme_'
'wont_'
'invasion_'
'bility_'
'teenagers_'
'gallery_'
'entertained_'
'tive_'
'intend_'
'mega'
'instances_'
'arrives_'
'retail_'
'mono_'
'historians_'
'goodbye_'
'nut_'
'flexible_'
'deny_'
'bug_'
'cooler_'
'scroll_'
'frequency_'
'protein_'
'endings_'
'difficulties_'
'couples_'
'las_'
'immensely_'
'ssi'
'200'
'outs_'
'operations_'
'hd'
'gy_'
'genesis_'
'48_'
'work'
'referred_'
'ious_'
'gender_'
'obscure_'
'innovation_'
'heartfelt_'
'nonsense_'
'mentioning_'
'involvement_'
'displayed_'
'pre'
'pdf_'
'orders_'
'nail_'
'hot'
'bose_'
'alo'
'warner_'
'advise_'
'solar_'
'determination_'
'obsessed_'
'trials_'
'timing_'
'der'
'sy_'
'papers_'
'featurette_'
'von_'
'teachings_'
'grammar_'
'larry_'
'educated_'
'196'
'pointless_'
'industrial_'
'convenience_'
'races_'
'mile_'
'complaining_'
'cousin_'
'orchestral_'
'ood_'
'hopeful_'
'gen'
'documentation_'
'kicks_'
'combo_'
'curiosity_'
'?? _'
'shave_'
'owning_'
'delicate_'
'processor_'
'defend_'
'pillow_'
'ged_'
'electrical_'
'80'
'sympathy_'
'italy_'
'afterwards_'
'poles_'
'lily_'
'geo'
'clark_'
'wings_'
'travels_'
'qui'
'ya'
'warfare_'
'protagonists_'
'!._'
'socalled_'
'significance_'
'rca_'
'ick_'
'claire_'
'canada_'
'walker_'
'someday_'
'ry'
'phenomenal_'
'pacific_'
'musician_'
'starring_'
'stic_'
'set'
'phrases_'
'casting_'
'mi_'
'lg_'
'ee'
'revelations_'
'cat'
'britain_'
'walter_'
'mc'
'ei'
'sole_'
'morgan_'
'ji'
'temple_'
'ru'
'income_'
'fm_'
'dly_'
'anyways_'
'wil'
'severe_'
'mattress_'
'boards_'
'innocence_'
'birthday_'
'ars_'
'warn_'
'tur'
'shirt_'
'thoughtprovoking_'
'ego_'
'aunt_'
'rank_'
'au_'
'tense_'
'prominent_'
'composition_'
'blocks_'
'visually_'
'mixing_'
'fills_'
'downs_'
'laser_'
'accurately_'
'ue_'
'questionable_'
'horrific_'
'consumers_'
'ultra_'
'ip'
'suck_'
'julie_'
'hatred_'
'challenged_'
'enterprise_'
'obsession_'
'knives_'
'jay_'
'wipe_'
'navigate_'
'lust_'
'god'
'glue_'
'cartridge_'
'twin_'
'top'
'mu'
'creator_'
'invisible_'
'heroic_'
'prize_'
'doctrine_'
'bias_'
'barbara_'
'fifty_'
'composers_'
'patch_'
'faults_'
'progresses_'
'mind'
'fen'
'succeeds_'
'single'
'pu'
'coach_'
'win'
'striking_'
'roughly_'
'nazis_'
'ml_'
'mentally_'
'dylan_'
'agents_'
'reverse_'
'minus_'
'visiting_'
'vice_'
'phil_'
'drain_'
'professionals_'
'troubled_'
'lawyer_'
'deluxe_'
'santa_'
'eye'
'dimension_'
'conscious_'
'unforgettable_'
'laying_'
'ck'
'wrist_'
'stolen_'
'muscle_'
'ep_'
'191'
'0s_'
'zu'
'vista_'
'rit'
'fs_'
'corruption_'
'vol'
'velcro_'
'shi'
'upside_'
'all'
'occasions_'
'music'
'accent_'
'scanner_'
'greed_'
'collar_'
'allies_'
'realizing_'
'processes_'
'newspaper_'
'menus_'
'buyers_'
'beth_'
'angeles_'
'dose_'
'pity_'
'ja'
'stages_'
'negatives_'
'liberty_'
'backed_'
'habit_'
'nexus_'
'manga_'
'ken'
'flows_'
'oddly_'
'cing_'
'sound'
'powder_'
'34'
'ju'
'flower_'
'enhance_'
'shoulders_'
'undoubtedly_'
'mal'
'ho_'
'boost_'
'trading_'
'quarter_'
'invaluable_'
'foster_'
'composed_'
'applying_'
'supplied_'
'masterful_'
'beating_'
'36_'
'sheets_'
'ne'
'lively_'
'egg_'
'argues_'
'stiff_'
'alas_'
'verses_'
'shortly_'
'rock'
'dre'
'unrealistic_'
'ns'
'museum_'
'cage_'
'performs_'
'dictionary_'
'chess_'
'ben'
'beethoven_'
'adaptation_'
' ! _'
'butt_'
'solving_'
'saint_'
'wayne_'
'irony_'
'meals_'
'iti'
'fragile_'
'switched_'
'pearl_'
'64_'
'puzzles_'
'foot'
'concrete_'
'tro'
'sweat_'
'hub_'
'chip_'
'watches_'
'victor_'
'russell_'
'polished_'
'madness_'
'31_'
'yu'
'risks_'
'musically_'
'afternoon_'
'affairs_'
'gordon_'
'isn8217_'
'fitness_'
'examination_'
'lag_'
'historic_'
'end'
'cartoon_'
'?! _'
'traditions_'
'sean_'
'optical_'
'launch_'
'breathing_'
'insurance_'
'contract_'
'cinematic_'
'offensive_'
'ld_'
'rc'
'ked_'
'adjustable_'
'accepting_'
'historian_'
'glorious_'
'frightening_'
'backpack_'
'asian_'
'800_'
'he8217_'
'divided_'
'brilliance_'
'bon'
'moderate_'
'line'
'lifes_'
'compartment_'
'at'
'ut'
'gh'
'baker_'
'supreme_'
'ste'
'killers_'
'ba_'
'mountains_'
'gu'
'combine_'
'agreed_'
'admittedly_'
'za_'
'ours_'
'spectrum_'
'rp'
'drawings_'
'blessed_'
'approximately_'
'absurd_'
'copyright_'
'ch'
'northern_'
'purely_'
'muslim_'
'environmental_'
'jungle_'
'ironically_'
'suite_'
'lays_'
'gs'
'motives_'
'jet_'
'ina_'
'downright_'
'centered_'
'2002_'
'woven_'
'scream_'
'\u _'
'gym_'
'vague_'
'roof_'
'hills_'
'admits_'
'restored_'
'considerably_'
'jonathan_'
'bears_'
'bulbs_'
'tonight_'
'suction_'
'ser'
'pa'
'misses_'
'danny_'
'chamber_'
'awards_'
'aggressive_'
'vote_'
'uml_'
'intention_'
'client_'
'vehicles_'
'logy_'
'ga_'
'com'
'placing_'
'ore_'
'goods_'
'presenting_'
'durability_'
'ner'
'iv_'
'extend_'
'excessive_'
'feat_'
'chemical_'
'cd'
'warren_'
'unfamiliar_'
'te'
'remix_'
'mars_'
'loads_'
'ine'
'contrived_'
'collect_'
'shades_'
'home'
'ker_'
'heritage_'
'bubble_'
'beer_'
'ambitious_'
'protecting_'
'observation_'
'everyones_'
'solos_'
'ash_'
'hor'
'ano'
'1080p_'
'yp'
'mb_'
'gra'
'endearing_'
'85_'
'implications_'
'ible_'
'comparisons_'
'72'
'65_'
'ord_'
'frozen_'
'age'
'toilet_'
'sta'
'ensemble_'
'there8217_'
'pile_'
'keyboards_'
'bland_'
'refuse_'
'lunch_'
'burns_'
'stro'
'sle'
'restore_'
'phase_'
'flashlight_'
'depicted_'
'communist_'
'theatre_'
'studied_'
'passes_'
'nelson_'
'glossary_'
'senses_'
'convert_'
'stylus_'
'pitch_'
'executive_'
'62_'
'washing_'
'sins_'
'p'
'obstacles_'
'nancy_'
'fy_'
'switches_'
'mechanical_'
'mario_'
'dragons_'
'doubts_'
'boston_'
'pope_'
'involve_'
'elvis_'
'genres_'
'followup_'
'33'
'yesterday_'
'strategic_'
'pound_'
'sil'
'pursue_'
'define_'
'uc'
'produces_'
'discipline_'
'acknowledge_'
'wooden_'
'varied_'
'swear_'
'mates_'
'framework_'
'fe_'
'websites_'
'hop_'
'tar'
'reissue_'
'three'
'lion_'
'dimensions_'
'dash_'
'250_'
'small'
'seeks_'
'jo'
'grounds_'
'gripe_'
'supplies_'
'chronicles_'
'tightly_'
'register_'
'like'
'berlin_'
'arrangements_'
'wa'
'virginia_'
'pra'
'ment'
'interact_'
'clicheacute_'
'linda_'
'critique_'
'con'
'shining_'
'influences_'
'governments_'
'configuration_'
'tea'
'ht'
'blacks_'
'19th_'
'warming_'
'terry_'
'joan_'
'wives_'
'textbook_'
'fred_'
'emails_'
'buyer_'
'trend_'
'blank_'
'aa'
'remarkably_'
'performers_'
'poet_'
'motivations_'
'ebay_'
'strictly_'
'sexuality_'
'competitive_'
'wizard_'
'reasoning_'
'ite_'
'ad'
'pie_'
'ironic_'
'ios_'
'iest_'
'ac'
'laughter_'
'inc_'
'high'
'believers_'
'aimed_'
'199'
'wherever_'
'thesis_'
'robot_'
'neighbor_'
'wanna_'
'neighborhood_'
'free'
'armed_'
'usly_'
'tables_'
'lock'
'inferior_'
'90'
'rational_'
'warriors_'
'processing_'
'maggie_'
'haunted_'
'buildings_'
'190'
'slaves_'
'greatness_'
'way'
'hire_'
'chilling_'
'hurts_'
'fluid_'
'assumed_'
'assassination_'
'netgalley_'
'joined_'
'inspirational_'
'verdict_'
'steven_'
'spirits_'
'representative_'
'mechanics_'
'continually_'
'bur'
'alternatives_'
'thrill_'
'reed_'
'eco'
'ao'
'ti_'
'nonfiction_'
'applies_'
'partly_'
'merit_'
'kra'
'que'
'play'
'macbook_'
'imo_'
'gross_'
'waves_'
'entries_'
'zo'
'net'
'corrupt_'
'bride_'
'reluctant_'
'multi'
'editors_'
'border_'
'onoff_'
'meantime_'
'feeding_'
'decline_'
'za'
'sauce_'
'brass_'
'zen_'
'upbeat_'
'midst_'
'hart_'
'encouraging_'
'uk'
'too'
'replay_'
':  _'
'roads_'
'cartridges_'
'jumps_'
'full'
'wells_'
'pop'
'sg'
'safely_'
'ras_'
'melodies_'
'dis'
'consists_'
'pets_'
'longterm_'
'joint_'
'sar'
'lip_'
'ash'
'simplicity_'
'che_'
'uneven_'
'that'
'senior_'
'more'
'linked_'
'31'
'veteran_'
'utility_'
'tail_'
'pour_'
'oh'
'explicit_'
'surviving_'
'ssd_'
'specs_'
'fare_'
'pon'
'mixture_'
'do'
'upcoming_'
'dan'
'ignorance_'
'failures_'
'cells_'
'ku'
'grandmother_'
'cpu_'
'cation_'
'beans_'
'gloves_'
'g'
'cle'
' \u_'
'py_'
'gamers_'
'filmmakers_'
'dolby_'
'avoided_'
'yan'
'resulted_'
'ren'
'racial_'
'fied_'
'rocker_'
'ore'
'gold'
'collapse_'
'translated_'
'rg'
'groove_'
'folder_'
'complained_'
'oni'
'for'
'religions_'
'ering_'
'bc_'
'eliminate_'
'yo'
'unlock_'
'pin'
'password_'
'jan'
'election_'
'bwesterns_'
'playback_'
'paragraphs_'
'ona'
'je'
'trans'
'smoking_'
'obtain_'
'myths_'
'delay_'
'ere'
'cried_'
'arguably_'
'triple_'
'division_'
'commit_'
'and'
'tuned_'
'spark_'
'nearby_'
'fps_'
'cross'
'ane'
'sends_'
'my'
'lowest_'
'cor'
'wears_'
'scratches_'
'portions_'
'c'
'42'
'198'
'manufacturing_'
'friday_'
'chat_'
'soup_'
'rad'
'excess_'
'bless_'
'vibe_'
'pays_'
'cliff_'
'visuals_'
'lei'
'independence_'
'inability_'
'exotic_'
'right'
'eni'
'aluminum_'
'38_'
'vocabulary_'
'rendition_'
'overnight_'
'interpretations_'
'harp_'
'furniture_'
'bios_'
'raises_'
'partners_'
'labeled_'
'promote_'
'rod_'
'towns_'
'managing_'
'bar'
'asi'
'admirable_'
'virgin_'
'spa'
'may'
'eu'
'avoiding_'
'trusted_'
'trailers_'
'credibility_'
'stark_'
'pe_'
'night'
'lou'
'71'
'sigh_'
'jan_'
'depend_'
'anytime_'
'oo'
'hea_'
'ome_'
'lt'
'entered_'
'ri_'
'precision_'
'realities_'
'paths_'
'evans_'
'rom'
'funk_'
'familys_'
'ethics_'
'ripped_'
'with'
'ence_'
'186'
'outdoor_'
'maintaining_'
'exceptionally_'
'diana_'
'assistant_'
'x'
'wounded_'
'wasn8217_'
'thicker_'
'jessica_'
'adopted_'
'ys'
'sellers_'
'murderer_'
'log_'
'enthusiasm_'
'dive_'
'communities_'
'characteristics_'
'workouts_'
'under'
'inde'
'duo_'
'doll_'
'boot'
'unhappy_'
'sy'
'questioning_'
'indicator_'
'demanding_'
'sho'
'organ_'
'zer_'
'terrifying_'
'rocky_'
'pa_'
'dy'
'suits_'
'short'
'circuit_'
'suffice_'
'sche'
'reward_'
'pit_'
'leap_'
'ana'
'prejudice_'
'hard'
'demonstrate_'
'affection_'
'5th_'
'referring_'
'pleasantly_'
'5star_'
'dc'
'ant'
'aim_'
'white'
'hz_'
'catherine_'
'bulky_'
'shelves_'
'propaganda_'
'heading_'
'breathe_'
'artificial_'
'surrounded_'
'lightly_'
'largest_'
'domestic_'
'brain'
'versatile_'
'tempted_'
'rapidly_'
'hen'
'grand'
'ara'
'ugh_'
'lightning_'
'jack'
'rt_'
'pastor_'
'attitudes_'
'so'
'scare_'
'new'
'establish_'
'asleep_'
'42_'
'recommending_'
'raid_'
'near'
'horrors_'
'fired_'
'exchanged_'
'crush_'
'deciding_'
'begun_'
'anecdotes_'
'una'
'pay'
'outlook_'
'analog_'
'schedule_'
'requirements_'
'intricate_'
'hooks_'
'197'
'xi'
'washed_'
'shakespeare_'
'photoshop_'
'perception_'
'hats_'
'tar_'
'stopping_'
'see'
'paints_'
'nutrition_'
'50s_'
'mixes_'
'rolled_'
'encouraged_'
'eacute_'
'doom_'
'cre'
'competent_'
'brand'
'zi'
'utter_'
'ured_'
'pot'
'sse'
'jon_'
'diversity_'
'ce'
'pops_'
'injury_'
'hell'
'tricky_'
'na'
'stra'
'open'
'maria_'
'werewolf_'
'lips_'
'legends_'
'contributions_'
'vas'
'roberts_'
'phantom_'
'columbia_'
'anxiety_'
'samples_'
'simplistic_'
'izing_'
'dm'
'reception_'
'knees_'
'kim_'
'illegal_'
'rival_'
'react_'
'ngly_'
'land'
'cooper_'
'189'
'sly_'
'nate_'
'incorrect_'
'gor'
'am'
'usable_'
'sthe_'
'statistics_'
'grind_'
'82'
'veness_'
'ure'
'towel_'
'tommy_'
'sucked_'
'sd'
'screen'
'scholarship_'
'er'
'classroom_'
'some'
'motivated_'
'hung_'
'bubbles_'
'whoever_'
'warmth_'
'os'
'notably_'
'isolated_'
'get'
'francis_'
'side'
'basket_'
'backwards_'
'remotely_'
'paradise_'
'francisco_'
'engrossing_'
'cool'
'wright_'
'vel'
'um'
'longtime_'
'counting_'
'commander_'
'bt'
'starter_'
'val'
'shield_'
'pleasing_'
'hair'
'enable_'
'visited_'
'sur'
'sticky_'
'honey_'
'supplements_'
'mankind_'
'incomplete_'
'120_'
'pe'
'locks_'
'hel'
'collective_'
'boom_'
'provoking_'
'og'
'hy'
'heroines_'
'evolved_'
'drawback_'
'democratic_'
've'
'thumbs_'
'disappear_'
'cowboy_'
'assured_'
'symphonies_'
'guests_'
'dressed_'
'any'
'ters_'
'sought_'
'measures_'
'cur'
'politically_'
'mindset_'
'endure_'
'designer_'
'crossed_'
'businesses_'
'unfolds_'
'storylines_'
'shifts_'
'plausible_'
'in'
'gut_'
'cops_'
'assistance_'
'opener_'
'nons'
'karen_'
'halloween_'
'gabriel_'
'use'
'marie_'
'jesse_'
'documented_'
'crown_'
'placement_'
'ock_'
'hearted_'
'ed'
'cks_'
'stri'
'lar'
'indians_'
'racism_'
'jail_'
'kon'
'drunk_'
'believer_'
'barry_'
'armor_'
'ek'
'bal'
'partially_'
'ias_'
'followers_'
'douglas_'
'cgi_'
'boundaries_'
'backs_'
'44_'
'winds_'
'tongue_'
'sh'
'nervous_'
'mustread_'
'investigate_'
'ini'
'disc'
'dangers_'
'absent_'
'ur'
'upgraded_'
'stu'
'margaret_'
'congress_'
'clay_'
'bb'
'skeptical_'
'med_'
'license_'
'fond_'
'floors_'
'entertain_'
'eat'
'tapes_'
'drove_'
'ranks_'
'investing_'
'footnotes_'
'el'
'duet_'
'chi_'
'star'
'kre'
'ise_'
'signature_'
'l'
'engineer_'
'blue'
'whilst_'
'linux_'
'laptops_'
'bles_'
'56_'
'worthless_'
'optional_'
'marine_'
'helen_'
'entering_'
'destined_'
'bat_'
'squot_'
'disclaimer_'
'credible_'
'but'
'breeze_'
'2'
'1999_'
'lity_'
'dense_'
'bolt_'
'wound_'
'ub'
'kong_'
'identified_'
'empathy_'
'circles_'
'bio'
'strangely_'
'separated_'
'compromise_'
'flawlessly_'
'cents_'
'blowing_'
'ali'
'51'
'xs_'
'ala'
'mighty_'
'bor'
'standout_'
'sci'
'scenarios_'
'mg_'
'eta'
'amateur_'
'52'
'philip_'
'met'
'graham_'
'gates_'
'das_'
'baking_'
'asia_'
'ami'
'sit'
'chooses_'
'rechargeable_'
'cos'
'cc'
'assessment_'
'toes_'
'point'
'pathetic_'
'ethernet_'
'cal'
'auto'
'ak'
'??? _'
'punishment_'
'esi'
'blows_'
'rpg_'
'indication_'
'37'
'rinse_'
'reply_'
'forcing_'
'exam_'
'ella_'
'yl_'
'slick_'
'ot'
'retired_'
'pretend_'
'funky_'
'california'
'smartphone_'
'jamie_'
'elo'
'settled_'
'josh_'
'broadcast_'
'struggled_'
'sensual_'
'ous'
'ls'
'keen_'
'preparing_'
'bag'
'scholar_'
'194'
'lan_'
'figuring_'
'cy'
'relates_'
'magnetic_'
'islamic_'
'first'
'breakfast_'
'ticket_'
'sequels_'
'pel'
'socks_'
'networks_'
'craig_'
'maintenance_'
'far'
'enlightening_'
'adi'
'quick'
'merits_'
'eo'
'attacked_'
'arrival_'
'venture_'
'tops_'
'oliver_'
'mes_'
'institutions_'
'heartwarming_'
'complimentary_'
'second'
'law'
'illustrate_'
'destination_'
'assist_'
'ai'
'tortured_'
'pole_'
'addictive_'
'forums_'
'delete_'
'consumption_'
'sometime_'
'shorts_'
'recommends_'
'expose_'
'conscience_'
'carl_'
'capturing_'
'!!!! _'
'visions_'
'stylish_'
'leak_'
'girl'
'deli'
'collector_'
'breathtaking_'
'banter_'
'121'
'watts_'
'tor'
'segments_'
'phone'
'pepper_'
'sb'
'kes_'
'ge'
'depiction_'
'traits_'
'introducing_'
'improving_'
'ey'
'cis'
'camps_'
'brains_'
'she8217_'
'gothic_'
'conductor_'
'collecting_'
'adore_'
'suspects_'
'stone'
'scenery_'
'inherent_'
'flowing_'
'closet_'
'annie_'
'adjustments_'
'adjusted_'
'ust'
'tiger_'
'stored_'
'sal'
'lla_'
'jacks_'
'cli'
'paintings_'
'constitution_'
'ka'
'inclined_'
'riffs_'
'presumably_'
'novice_'
'messy_'
'wu'
'uplifting_'
'ric_'
'ing'
'infamous_'
'humour_'
'contribute_'
'accompanied_'
'rep_'
'ful'
'ec'
'nu'
'conversion_'
'controlling_'
'caveat_'
'longing_'
'lib'
'inter'
'fi_'
'ethical_'
'weaves_'
'ul'
'silicone_'
'scha'
'perry_'
'news'
'hyper'
'eno'
'46_'
'39_'
'stewart_'
'shiny_'
'not'
'lu'
'agency_'
'16'
'worldwide_'
'scent_'
'fascinated_'
'disorder_'
'commands_'
'ye_'
'wellknown_'
'plates_'
'mold_'
'ids_'
'basement_'
'citizen_'
'vertical_'
'unfold_'
'und_'
'padding_'
'chick_'
'unfair_'
'journalist_'
'doc_'
'assumptions_'
'substitute_'
'sophie_'
'seeds_'
'wore_'
'sen_'
'phenomenon_'
'overlook_'
'mer'
'ke'
'carrier_'
'spoiled_'
'rendered_'
'percussion_'
'criticisms_'
'bravo_'
'slo'
'metaphor_'
'jer'
'examine_'
'bolts_'
'wasting_'
'roses_'
'her'
'detract_'
'unre'
'strips_'
'stating_'
'isi'
'interestingly_'
'costumes_'
'cla'
'backdrop_'
'quantum_'
'ium_'
'ement_'
'www_'
'che'
'bra'
'bou'
'ation'
'tit'
'resurrection_'
'progression_'
'len'
'left'
'korean_'
'continuous_'
'apples_'
'hunters_'
'corn'
'adorable_'
'stability_'
'plugs_'
'necessity_'
'mens_'
'h'
'succeeded_'
'rant_'
'prone_'
'preparation_'
'nonstop_'
'disbelief_'
'neo'
'leo_'
'exclusive_'
'dog'
'ape'
'zes_'
'viewpoint_'
'tenor_'
'sliding_'
'shu'
'seed_'
'isa'
'wind'
'prop'
'lone_'
'indicates_'
'gaps_'
'devastating_'
'case'
'rapid_'
'noting_'
'echo_'
'jealous_'
'io'
'flashbacks_'
'fifteen_'
'devotion_'
'brick_'
'read'
'encourages_'
'bis'
'alright_'
'ute_'
'exit_'
'be'
'ards_'
'yi'
'dramatically_'
'bump_'
'underrated_'
'oy_'
'grim_'
'gamer_'
'compete_'
'sky'
'signed_'
'reporter_'
'no'
'filming_'
'ea'
'best'
'ah'
'nie'
'flexibility_'
'republican_'
'relation_'
'rd'
'quietly_'
'photographer_'
'hau'
'corn_'
'recover_'
'ies'
'review'
'gy'
'ow'
'ko'
'ile_'
'coupled_'
'blake_'
'visits_'
'respected_'
'affects_'
'pairing_'
'managers_'
'hai'
'alter_'
'ski_'
'fee_'
'biased_'
'air'
'taxes_'
'logo_'
'county_'
'75'
'throat_'
'claiming_'
'tyler_'
'oa'
'ness'
'lat'
'drinks_'
'arranged_'
'aftermath_'
'softer_'
'hates_'
'36'
'wood'
'whites_'
'indicated_'
'film'
'can'
'rides_'
'assault_'
'abused_'
'rn_'
'conducted_'
'cock'
'anti'
'vegas_'
'pans_'
'flies_'
'blo'
'aids_'
',  _'
'notebook_'
'mes'
'195'
'yo_'
'span_'
'sincere_'
'scattered_'
'noisy_'
'backstory_'
'theirs_'
'mesh_'
'mac'
'ization_'
'hired_'
'fatal_'
'mystical_'
'men'
'guaranteed_'
'sf'
'import_'
'ice'
'distinctive_'
'cope_'
'yn'
'superficial_'
'sparks_'
'repetition_'
'measured_'
'ber_'
'australia_'
'separation_'
'realization_'
'brooks_'
'bath_'
'ati'
'problematic_'
'pete_'
'jefferson_'
'inevitably_'
'historically_'
'this'
'saturday_'
'sat'
'ology_'
'legitimate_'
'band'
'unanswered_'
'overthetop_'
'forbidden_'
'flo'
'bli'
'true'
'tal_'
'rave_'
'grounded_'
'ade_'
'screwed_'
'rolls_'
'riff_'
'paired_'
'egypt_'
'comfortably_'
'variation_'
'ter'
'studios_'
'sealed_'
'monitors_'
'engineers_'
'enabled_'
'eagerly_'
'ba'
'skilled_'
'death'
'clearer_'
'timeline_'
'thief_'
'pricey_'
'ori'
'victorian_'
'strangers_'
'pri'
'nds_'
'mag'
'ght'
'extra'
'experiments_'
'prisoners_'
'ote'
'mp_'
'fra'
'blah_'
'ates_'
'disappeared_'
'collected_'
'beside_'
'austen_'
'sinister_'
'ook_'
'selections_'
'rou'
'restoration_'
'louder_'
'story'
'respective_'
'pose_'
'lb'
'johns_'
'ir'
'as'
'airport_'
'wn_'
'spirituality_'
'jackie_'
'cou'
'cabinet_'
'ans'
'52_'
'vincent_'
'sad'
'rounds_'
'navigation_'
'brew_'
'billion_'
'61'
'ux_'
'sixth_'
'west'
'flu'
'ack_'
'13'
'fli'
'assigned_'
'twins_'
'owe_'
'longest_'
'cans_'
'broadway_'
'counts_'
'come'
'chips_'
'canadian_'
'breaker_'
'awe_'
'78_'
'ultra'
'quoted_'
'pouch_'
'oma'
'700_'
'ze'
'signals_'
'packaged_'
'leg'
'had'
'freely_'
'dead'
'od_'
'dried_'
'couch_'
'81'
'uni'
'tru'
'tire_'
'relatives_'
'lacked_'
'idiot_'
'cotton_'
'costume_'
'confirmed_'
'mozart_'
'font_'
'distribution_'
'1990s_'
'judy_'
'house'
'golf_'
'bed'
'ures_'
'responsive_'
'delivering_'
'colin_'
'cam'
'tv'
'sincerely_'
'reform_'
'id'
'en'
'dale_'
'arrow_'
'pulp_'
'ob'
'neutral_'
'minister_'
'lap_'
'confirm_'
'rooting_'
'ree'
'receives_'
'pushes_'
'jerk_'
'ines_'
'fu'
'fade_'
'elderly_'
'ballads_'
'weakest_'
'graduate_'
'dn'
'cha'
'adapt_'
'terrorist_'
'connects_'
'scanning_'
'newest_'
'flap_'
'crappy_'
'contacts_'
'siblings_'
'retirement_'
'phillips_'
'lords_'
'lab_'
'gravity_'
'dslr_'
'delighted_'
'colleagues_'
'bre'
'arti'
'adjusting_'
'510_'
'! :_'
'rds_'
'rand_'
'ignorant_'
'ftc_'
'transformed_'
'rin'
'nowadays_'
'double'
'carol_'
'break'
'vin'
'vastly_'
'purchases_'
'experimental_'
'esta'
'destroying_'
'carbon_'
'capitalism_'
'lawrence_'
'clinton_'
'testimony_'
'spain_'
'sel'
'out'
'mutual_'
'mur'
'father'
'fan'
'ese'
'similarities_'
'savings_'
'quinn_'
'novel'
'individually_'
'ime_'
'catching_'
'seats_'
'rural_'
'celebrity_'
'keith_'
'array_'
'temporary_'
'nic_'
'isolation_'
'floating_'
'bach_'
' ? _'
'surgery_'
'rewards_'
'quirks_'
'nos_'
'knob_'
'fairness_'
'architecture_'
'adobe_'
'43_'
'1973_'
'sna'
'smells_'
'reallife_'
'leys_'
'brit'
'beaten_'
'1968_'
'orthodox_'
'magazines_'
'kitty_'
'funeral_'
'donald_'
'symptoms_'
'momentum_'
'jar_'
'festival_'
'concentration_'
'careers_'
'temp_'
'she'
'rb'
'nt'
'gran'
'dream'
'usi'
'squeeze_'
'kidding_'
'increases_'
'ib'
'gal_'
'bul'
'zin'
'satire_'
'faint_'
'ching_'
'smo'
'miracles_'
'ct_'
'char'
'buds_'
'agrees_'
'timely_'
'persona_'
'painfully_'
'owns_'
'istic_'
'beef_'
'ball'
'arab_'
'masses_'
'da'
'nit'
'kindness_'
'earbuds_'
'bos'
'bing_'
'epson_'
'contributed_'
'upright_'
'serials_'
'reboot_'
'popularity_'
'mildly_'
'formal_'
'accused_'
'unsure_'
'terrorism_'
'spinning_'
'revised_'
'fro'
'zipper_'
'shutter_'
'ntly_'
'flame_'
'att_'
'ani'
'stein_'
'moms_'
'kur'
'cut'
'bran'
'who'
'vo'
'symbol_'
'parenting_'
'lay'
'elaborate_'
'ban'
'aircraft_'
'smiling_'
'muslims_'
'hannah_'
'abusive_'
'var'
'pt'
'highway_'
'gathering_'
'fleshed_'
'compliments_'
'worries_'
'shade_'
'naive_'
'mad'
'loading_'
'lig'
'commentaries_'
'47_'
'subplot_'
'reporting_'
'py'
'ger'
'critic_'
'bonds_'
'attorney_'
'appropriately_'
'veterans_'
'put'
'ou_'
'developments_'
'aw'
'assembled_'
'secular_'
'pla'
'overpriced_'
'linear_'
'lia'
'intact_'
'game'
'ethan_'
'catalog_'
'tin_'
'leonard_'
'cave_'
'96'
'than'
'hoo'
'flag_'
'clicking_'
'cious_'
'vegetables_'
'schi'
'fortunate_'
'threats_'
'swa'
'mf'
'ki'
'electricity_'
'ced_'
'afghanistan_'
'pm_'
'modest_'
'mexican_'
'justified_'
'iso_'
'hamilton_'
'surfaces_'
'panels_'
'nk'
'typos_'
'tim'
'thankful_'
'simpler_'
'rogers_'
'pea'
'lemon_'
'grandfather_'
'gan_'
'daring_'
'pic'
'backgrounds_'
'willingness_'
'stan'
'squa'
'nl'
'exposition_'
'dragged_'
'distortion_'
'49_'
'weaker_'
'voltage_'
'troubles_'
'rifle_'
'plotting_'
'del'
'confrontation_'
'charlotte_'
'sher'
'mob_'
'know'
'frames_'
'dominant_'
'discount_'
'annoyance_'
'sting_'
'originality_'
'dur'
'bbc_'
'nicer_'
'mill_'
'broader_'
'waterproof_'
'n8217_'
'comp'
'tha'
'namely_'
'emo'
'dilemma_'
'aro'
'ruth_'
'repeating_'
'plague_'
'olivia_'
'dos_'
'chasing_'
'99'
'1995_'
'ving_'
'structures_'
'perceived_'
'doomed_'
'counter'
'codes_'
'accordance_'
'us'
'trauma_'
'sex'
'ered_'
'dol'
'bella_'
'38'
'toss_'
'matched_'
'http_'
'dignity_'
'cooling_'
'compliment_'
'anxious_'
'51_'
'1980_'
'whi'
'robinson_'
'indie_'
'gather_'
'competing_'
'sm'
'primer_'
'lite_'
'diehard_'
'cad'
'tighten_'
'spiderman_'
'rub'
'glance_'
'ene'
'association_'
'pal_'
'mas_'
'influential_'
'hello_'
'collaboration_'
'qua'
'muscles_'
'ery_'
'alt'
': ..._'
'philips_'
'ounce_'
'ink'
'dystopian_'
'nap'
'jfk_'
'fishing_'
'colonel_'
'yed_'
'ruins_'
'pregnancy_'
'min'
'blessing_'
'whit'
'portrays_'
'ora'
'mason_'
'ker'
'evi'
'weights_'
'sco'
's1'
'lin'
'if'
'histories_'
'gauge_'
'gan'
'advisory_'
'runner_'
'locking_'
'irrelevant_'
'hdtv_'
'exterior_'
'eth_'
'corporations_'
'battlefield_'
'action'
'spelling_'
'soft'
'knocked_'
'fat'
'albert_'
'vengeance_'
'emperor_'
'chi'
'appearing_'
'unpleasant_'
'strain_'
'maturity_'
'39'
'respects_'
'ole'
'calendar_'
'bean_'
'purse_'
'permanently_'
'michelle_'
'mari'
'inserted_'
'depths_'
'deliberately_'
'translations_'
'there'
'shan'
'severely_'
'fi'
'explosive_'
'criminals_'
'scar'
'mia_'
'gt'
'type'
'transform_'
'thrillers_'
'psychic_'
'peaceful_'
'lush_'
'inputs_'
'il'
'bracket_'
'art'
'ada'
'tion'
'rainbow_'
'cu'
'bas'
'virus_'
'threatened_'
'push'
'four'
'climb_'
'categories_'
'walmart_'
'thereby_'
'nce'
'lie'
'hr_'
'highs_'
'heights_'
'expressions_'
'dou'
'better'
'arrogant_'
'poland_'
'lan'
'hl'
'finance_'
'agreement_'
'survey_'
'pirates_'
'middle'
'fine'
'demo_'
'burden_'
'ate'
'accompanying_'
'ten'
'rabbit_'
'pur'
'luci'
'lett'
'attract_'
'accessory_'
'sara_'
'printers_'
'fires_'
'exp'
'dedication_'
'berry_'
'witnesses_'
'stubborn_'
'stealing_'
'responses_'
'rebel_'
'01_'
'tabs_'
'have'
'generate_'
'exclusively_'
'cracked_'
'compelled_'
'pit'
'jumped_'
'hb'
'freeze_'
'dude_'
'65'
'41'
'robust_'
'dra'
'wi'
'well'
'stanley_'
'soul'
'forty_'
'attend_'
'pen'
'ola'
'dor'
'dark'
'beneficial_'
'atmospheric_'
'1998_'
'reign_'
'parallels_'
'factual_'
'demonstrated_'
'cowboys_'
'compositions_'
'wax_'
'technologies_'
'ref'
'hoover_'
'ette_'
'va'
'sloppy_'
'recharge_'
'nintendo_'
'infinite_'
'hal'
'ethnic_'
'255_'
'orleans_'
'moody_'
'hardcover_'
'eti'
'db'
'compassionate_'
'rat_'
'panic_'
'marshall_'
'marcus_'
'integration_'
'fying_'
'dam'
'tz_'
'superhero_'
'reduction_'
'mice_'
'friendships_'
'dna_'
'courses_'
'biological_'
'actively_'
'swe'
'saints_'
'qi'
'our'
'optimistic_'
'ireland_'
'62'
'37_'
'wifes_'
'ners_'
'hybrid_'
'hay'
'dit'
'bills_'
'wo'
'uncon'
'spine_'
'societies_'
'mel_'
'ignoring_'
'requiring_'
'pics_'
'ole_'
'jacob_'
'invented_'
'ym'
'spaces_'
'guards_'
'forum_'
'elses_'
'dl'
'considers_'
'bearing_'
'30s_'
'syndrome_'
'glimpses_'
'seamlessly_'
'officials_'
'savage_'
'introductory_'
'funds_'
'controversy_'
'completing_'
'wrestling_'
'sexually_'
'nona'
'leds_'
'continuity_'
'chu'
'preaching_'
'nope_'
'mundane_'
'kane_'
'goody_'
'goddess_'
'gle'
'ct'
'profession_'
'mormon_'
'issued_'
'imper'
'wholly_'
'tm'
'synopsis_'
'relax_'
'immortal_'
'homage_'
'elli'
'dennis_'
'deception_'
'choir_'
'airplane_'
'yd'
'ula'
'scru'
'real'
'impress_'
'harvey_'
'catholics_'
'bm'
'vicious_'
'sim_'
'musthave_'
'ks'
'fusion_'
'fel'
'class'
'bit'
'1994_'
'priceless_'
'moon'
'iz'
'bribes_'
'abandon_'
'46'
'wraps_'
'someones_'
'resistant_'
'outrageous_'
'manufactured_'
'ino'
'gab'
'energetic_'
'combines_'
'58'
'47'
'40s_'
'tab'
'quests_'
'opponents_'
'nicholas_'
'kin'
'implement_'
'fla'
'brighter_'
'68_'
'upp'
'snake_'
'room'
'reunion_'
'restart_'
'listens_'
'employed_'
'dom'
'1969_'
'threatening_'
'shin'
'rian_'
'reflections_'
'evolutionary_'
'comedic_'
'color'
'500'
'43'
'turkey_'
'thompson_'
'sue_'
'onscreen_'
'logan_'
'hi'
'celebration_'
'aut'
'alf'
'acu'
'zip_'
'surrender_'
'sonata_'
'ridge_'
'nudity_'
'inconsistent_'
'gw'
'didnt_'
'dei'
'criterion_'
'authenticity_'
'lers_'
'evocative_'
'electro'
'ceiling_'
'unsu'
'tf'
'survivor_'
'digging_'
'colour_'
'absorb_'
'abrupt_'
'ved_'
'per'
'horribly_'
'dishwasher_'
'anda'
'toxic_'
'skipping_'
'scriptures_'
'practicing_'
'movie'
'ic'
'facial_'
'emphasize_'
'ws'
'smiths_'
'halo_'
'sleek_'
'kno'
'judging_'
'hei'
'cali'
'breakdown_'
'bo'
'beat'
'alltime_'
'what'
'weigh_'
'valve_'
'tz'
'slice_'
'quicker_'
'hollow_'
'cynical_'
'cent_'
'abi'
'video'
'spring'
'plan'
'outright_'
'modem_'
'll'
'hebrew_'
'genetic_'
'addicted_'
'78'
'track'
'temptation_'
'rude_'
'resort_'
'predict_'
'cameo_'
'katie_'
'ier'
'gun'
'circus_'
'cher_'
'authorities_'
'remembering_'
'pizza_'
'hawk_'
'drummer_'
'ode'
'norton_'
'ima'
'homework_'
'depressed_'
'darcy_'
'amanda_'
'   _'
'nan'
'lb_'
'lately_'
'harper_'
'crossing_'
'bishop_'
'aqua'
'rt'
'rag'
'environments_'
'ders_'
'1972_'
'wd_'
'unde'
'uncertainty_'
'tooth_'
'shooter_'
'peel_'
'kins_'
'ens'
'dump_'
'astonishing_'
'1930s_'
'relating_'
'reflective_'
'kicking_'
'intel_'
'greg_'
'vendor_'
'rose'
'press'
'ple'
'confront_'
'44'
'wallet_'
'tanks_'
'caps_'
'ample_'
'1963_'
'vein_'
'subjective_'
'ras'
'locate_'
'human'
'applaud_'
'trace_'
'tb'
'remarks_'
'holly_'
'guts_'
'fierce_'
'consuming_'
'behaviors_'
'tan_'
'rooted_'
'matrix_'
'geared_'
'exquisite_'
'dil'
'chord_'
'admired_'
'soy_'
'se'
'emerge_'
'eli'
'weekly_'
'tilt_'
'properties_'
'prayers_'
'portray_'
'nostalgia_'
'nes'
'infer'
'holster_'
'cp'
'ast'
'108'
'spe'
'sorrow_'
'sim'
'racist_'
'de'
'camping_'
'brushes_'
'width_'
'ridiculously_'
'pp'
'mala'
'grips_'
'enters_'
'blew_'
'antis'
'15'
'self'
'removal_'
'pun_'
'nder_'
'lon_'
'huh_'
'hardest_'
'adapters_'
'ton'
'swearing_'
'storyteller_'
'residents_'
'om'
'gruesome_'
'bi'
'advantages_'
'185'
'zs_'
'todd_'
'them'
'shaving_'
'neatly_'
'glossy_'
'champion_'
'bron'
'57_'
'1984_'
'110_'
'vegetarian_'
'songwriting_'
'skin'
'rider_'
'principal_'
'mel'
'ings'
'identification_'
'behave_'
'ays_'
'91'
'wreck_'
'uh'
'resident_'
'possess_'
'guitarist_'
'sf_'
'pro'
'mother'
'hit'
'earth'
'clean'
'bull_'
'stairs_'
'sl'
'scandal_'
'hank_'
'opa'
'denied_'
'co'
'cata'
'rugged_'
'poison_'
'onal_'
'kill'
'illusion_'
'delve_'
'cow'
'amish_'
'rewarded_'
'reliability_'
'invited_'
'bleak_'
'virtue_'
'randomly_'
'posts_'
'ops_'
'mono'
'ji_'
'ingredient_'
'ett_'
'em'
'cartoons_'
'58_'
'sun'
'pc'
'nta'
'justin_'
'autobiography_'
'after'
'transport_'
'school'
'nf'
'ler'
'holidays_'
'excellence_'
'breath'
'acquired_'
'1976_'
'lit'
'ional_'
'fre'
'dryer_'
'burst_'
'bridges_'
'ue'
'regarded_'
'picky_'
'glued_'
'devils_'
'ari'
'altered_'
'advised_'
'trim_'
'sara'
'ranging_'
'mercury_'
'lc'
'child'
'57'
'1970_'
'14'
'scu'
'rope_'
'regime_'
'reagan_'
'eh'
'clan_'
'111'
'steele_'
'photo'
'norm_'
'nas'
'minority_'
'losses_'
'jean'
'ith'
'easiest_'
'ction_'
'council_'
'coo'
'65533_'
'vividly_'
'photograph_'
'fiber_'
'encouragement_'
'bittersweet_'
'pipe_'
'generated_'
'ga'
'cherry_'
'abundance_'
'rises_'
'relies_'
'molly_'
'mentor_'
'eb'
'tin'
'harbor_'
'grocery_'
'bury_'
'bd'
'ali_'
'terrorists_'
'securely_'
'males_'
'lighthearted_'
'les'
'gau'
'dependent_'
'compensation_'
'commonly_'
'ron'
'reserved_'
'removable_'
'privacy_'
'pairs_'
'horns_'
'gains_'
'sr'
'ruby_'
'provocative_'
'monthly_'
'messed_'
'illustrates_'
'heating_'
'healthier_'
'cooked_'
'cleverly_'
'corrected_'
'austin_'
'al'
'prophecy_'
'preserve_'
'pant'
'globe_'
'extract_'
'subplots_'
'sou'
'monkey_'
'incorporate_'
'eventual_'
'baby'
'sc'
'ria_'
'developer_'
'browsing_'
'54_'
'worker_'
'twi'
'testimonials_'
'tc'
'slap_'
'redeeming_'
'mun'
'interference_'
'glow_'
'enduring_'
'doesnt_'
'productive_'
'por'
'lynn_'
'1967_'
'1010'
'take'
'recon'
'rebecca_'
'indoor_'
'flood_'
'conviction_'
'ballet_'
'sab'
'ova'
'hurry_'
'compatibility_'
'cheating_'
'batch_'
'193'
'victoria_'
'lli'
'lifting_'
'ket'
'him'
'fulfilling_'
'freak_'
'dal'
'bs'
'bass'
'assumes_'
'throne_'
'glaring_'
'competitors_'
'biology_'
'sti'
'motorola_'
'ees_'
'earl_'
'avo'
'64'
'yt'
'tl'
'suspicious_'
'slightest_'
'performer_'
'foil_'
'spice_'
'port'
'originals_'
'knights_'
'emerging_'
'disclosing_'
'dem'
'barrel_'
'188'
'splendid_'
'participants_'
'leaf_'
'engagement_'
'eerie_'
'distinction_'
'courageous_'
'03'
'ven'
'treating_'
'tom'
'tasty_'
'suggesting_'
'pti'
'packing_'
'macro_'
'islands_'
'fast'
'alle'
'watt_'
'stroke_'
'stereotypes_'
'mp'
'hs'
'candidate_'
'ta'
'pulse_'
'proving_'
'mani'
'edwards_'
'dallas_'
'chrome_'
'void_'
'representation_'
'publish_'
'prisoner_'
'priority_'
'nurse_'
'lengths_'
'jewel_'
'cted_'
'audio'
'101'
'unbiased_'
'stand'
'ound_'
'borrow_'
'atlantic_'
'assassin_'
'1975_'
'r'
'op'
'ix_'
'disconnect_'
'ups'
'space'
'scotland_'
'rejected_'
'outdoors_'
'ess'
'77'
'sticker_'
'relaxed_'
'pounding_'
'overwhelmed_'
'opposition_'
'mitchell_'
'misery_'
'gre'
'functioning_'
'franklin_'
'folded_'
'ert'
'binding_'
'53'
'thinner_'
'planes_'
'biographies_'
'ambient_'
'ros'
'pioneer_'
'nal_'
'downloading_'
'clinical_'
'buildup_'
'breed_'
'amb'
'yl'
'tear'
'memoirs_'
'matching_'
'expertise_'
'dio'
'continuation_'
'brad_'
'witches_'
'wheat_'
'unpredictable_'
'mil'
'bet'
'assure_'
'1997_'
'varying_'
'toe_'
'rre'
'nest_'
'naval_'
'ght_'
'fun'
'cited_'
'wy'
'slow'
'pet'
'nostalgic_'
'hugh_'
'gua'
'este'
'cm'
'supportive_'
'pricing_'
'poo'
'obi'
'maid_'
'laundry_'
'holders_'
'gf'
'buck'
'98'
'won8217_'
'waist_'
'update'
'stretching_'
'sai'
'ration_'
'pale_'
'mistress_'
'ja_'
'was'
'ust_'
'stack_'
'pianist_'
'observed_'
'kat'
'harrison_'
'fox'
'biting_'
'avid_'
'absorbing_'
'vis'
'pseudo'
'magnet_'
'lou_'
'ideology_'
'destructive_'
'crashes_'
'adapted_'
'swept_'
'responded_'
'pedal_'
'partial_'
'mortal_'
'intermediate_'
'arise_'
'ane_'
'addressing_'
'unity_'
'tunnel_'
'rocking_'
'retelling_'
'insult_'
'cham'
'ar'
'ud'
'tod'
'sponsorships_'
'shifting_'
'mau'
'immense_'
'disabled_'
'compares_'
'butt'
'adored_'
'tel'
'stepping_'
'sp'
'rental_'
'ill'
'formats_'
'cozy_'
'assa'
'strict_'
'satellite_'
'prevents_'
'pcs_'
'noah_'
'fighters_'
'earphones_'
'borders_'
'awaiting_'
'apocalypse_'
'anticipation_'
'41_'
'wounds_'
'wild'
'text'
'road'
'rio'
'para'
'certified_'
'seth_'
'nr'
'landing_'
'intimacy_'
'fixes_'
'drawer_'
'distraction_'
'database_'
'coaster_'
'alli'
'tol'
'ruthless_'
'nti'
'freaking_'
'dracula_'
'cent'
'antics_'
'stove_'
'part'
'name'
'cords_'
'travis_'
'swimming_'
'shark_'
'reservations_'
'meetings_'
'hero'
'gaining_'
'conduct_'
'brad'
'01'
'updating_'
'slides_'
'secondly_'
'rein'
'pun'
'projector_'
'outdated_'
'moni'
'az'
'att'
'arena_'
'advocate_'
'120'
'sang_'
'presidents_'
'michaels_'
'ini_'
'hips_'
'05_'
'wolves_'
'wiring_'
'wikipedia_'
'sunshine_'
'rie'
'oz'
'cree'
'accepts_'
'wn'
'rf'
'rendering_'
'quibble_'
'disco'
'demise_'
'bookshelf_'
'achievements_'
'speed'
'neglected_'
'intentionally_'
'eternity_'
'cost'
'concluding_'
'achieving_'
'abstract_'
'rim'
'restaurants_'
'reflected_'
'mt'
'daddy_'
'connectors_'
'sul'
'flute_'
'astounding_'
'ww'
'upload_'
'upgrading_'
'price'
'mys'
'knee_'
'iso'
'ert_'
'complement_'
'buffy_'
'bog'
'treatments_'
'reel_'
'ralph_'
'rain'
'las'
'gh_'
'diaper_'
'able'
'3g_'
'hurting_'
'employee_'
'capitol_'
'boxed_'
'bir'
'pill_'
'het'
'gel'
'els'
'dim_'
'waking_'
'pac'
'norman_'
'go'
'eleven_'
'cliche_'
'bluegrass_'
'av_'
'wash'
'thro'
'showcase_'
'retain_'
'popcorn_'
'gin'
'fu_'
'enlightenment_'
'lifted_'
'hart'
'grady_'
'fit'
'trademark_'
'skipped_'
'seasoned_'
'rereading_'
'poses_'
'mk'
'kor'
'impressions_'
'gil'
'dry'
'ala_'
'85'
'outline_'
'faulty_'
'camcorder_'
'transmitter_'
'queens_'
'petty_'
'kh'
'zen'
'shaking_'
'measuring_'
'kir'
'ili'
'highlighted_'
'hem'
'connectivity_'
'body'
'ber'
'ara_'
'ae'
'stake_'
'rub_'
'offs_'
'injured_'
'dom_'
'ark'
'verbal_'
'una_'
'slots_'
'nyc_'
'meta'
'mathematical_'
'chords_'
'cer'
'prequel_'
'lap'
'georgia_'
'eccentric_'
'1990_'
'1979_'
'02_'
'tossed_'
'smart'
'rigid_'
'randy_'
'productions_'
'possession_'
'mist'
'korea_'
'imperial_'
'glitches_'
'escaped_'
'defining_'
'ante'
'aki'
'83'
'5mm_'
'1966_'
'swi'
'literal_'
'lend_'
'mat'
'lauren_'
'illustration_'
'hed_'
'cycles_'
'catches_'
'cab'
'thu'
'junior_'
'did'
'deni'
'australian_'
'abraham_'
'tuning_'
'sights_'
'ring'
'permission_'
'miserable_'
'cold'
'acquire_'
'1992_'
'tun'
'pencil_'
'integral_'
'heater_'
'du_'
'chef_'
'unfinished_'
'scratching_'
'run'
'recognizes_'
'pul'
'ky'
'joel_'
'flash'
'fever_'
'dolls_'
'bush'
'bee_'
'48'
'ves'
'ung'
'unaware_'
'possessed_'
'pills_'
'ode_'
'mickey_'
'forgettable_'
'woo'
'td'
'stretches_'
'series'
'mark'
'ith_'
'gli'
'fle'
'evolve_'
'consistency_'
'chemicals_'
'ca'
'admitted_'
'tactical_'
'spouse_'
'secretary_'
'procedure_'
'gory_'
'flat'
'63'
'seldom_'
'ladder_'
'joining_'
'harmonies_'
'dominated_'
'des'
'conference_'
'bird'
'bay'
'122'
'upgrades_'
'ule'
'peers_'
'live'
'kidnapped_'
'hol'
'hir'
'directing_'
'bennett_'
'aur'
'..... _'
'washer_'
'scottish_'
'lings_'
'ii'
'han'
'gig_'
'form'
'fair'
'evangelical_'
'era'
'doo'
'bru'
'assumption_'
'stance_'
'researching_'
'predecessor_'
'olds_'
'181'
'zy_'
'sleep'
'remembers_'
'reat'
'prey_'
'plight_'
'gp'
'coherent_'
'coconut_'
'camp'
'ae_'
'observe_'
'nc'
'key'
'handheld_'
'emi_'
'absorbed_'
'66_'
'ps2_'
'openly_'
'omi'
'cruise_'
'commission_'
'word'
'spotlight_'
'sherlock_'
'hill'
'cookie_'
'zo_'
'van'
'sto'
'sme'
'shee'
'respectively_'
'oo_'
'mah'
'lawyers_'
'julian_'
'fried_'
'conducting_'
'54'
'110'
'shelter_'
'ors'
'onic_'
'motive_'
'lia_'
'implies_'
'cob'
'clouds_'
'beta_'
'rl'
'rea'
'ponder_'
'fluff_'
'celebrate_'
'savvy_'
'satisfactory_'
'priests_'
'ong_'
'knowledgeable_'
'flush_'
'entirety_'
'b'
'app'
'1974_'
'vi_'
'times'
'steals_'
'ideals_'
'grams_'
'eva_'
'esc'
'attachments_'
'utilize_'
'shapes_'
'offerings_'
'monk_'
'mand'
'ist'
'fulfill_'
'flair_'
'findings_'
'cfr_'
'belly_'
'vac_'
'rocket_'
'revisit_'
'oca'
'fulness_'
'fs'
'fixing_'
'blood'
'awakening_'
'approaching_'
'worrying_'
'storys_'
'pros'
'lp'
'gears_'
'eyed_'
'cruelty_'
'ands_'
'translate_'
'stole_'
'scho'
'ranch_'
'ici'
'effectiveness_'
'disco_'
'designers_'
'coating_'
'ast_'
'sum'
'stripped_'
'promotion_'
'popping_'
'inappropriate_'
'hum'
'fund_'
'eda'
'donna_'
'don'
'dep'
'alliance_'
'1964_'
'wal'
'reducing_'
'ots_'
'kissing_'
'glo'
'cooker_'
'centers_'
'bea'
'mish'
'heartbreak_'
'fur'
'foolish_'
'departure_'
'66'
'warnings_'
'sus'
'sca'
'passive_'
'paper'
'old'
'kicked_'
'fraction_'
'dumb'
'draft_'
'dic'
'cart_'
'appetite_'
'radar_'
'oll'
'mahler_'
'ling'
'kri'
'hans_'
'admiration_'
'1996_'
'xmen_'
'tackle_'
'less'
'king'
'iran_'
'gers_'
'cookies_'
'clu'
'ace'
'98_'
'76'
'unplug_'
'symbols_'
'lle'
'hrs_'
'fuzzy_'
'clubs_'
'card'
'ath'
' ;_'
'sustain_'
'pirate_'
'feast_'
'farther_'
'boyd_'
'turmoil_'
'profits_'
'planets_'
'mant'
'fly'
'enthusiastic_'
'corps_'
'1991_'
'tp'
'sweeping_'
'stock'
'people'
'mah_'
'geni'
'67_'
'217_'
'ord'
'noticeably_'
'much'
'modified_'
'ml'
'elected_'
'domin'
'y'
'sli'
'pref'
'participate_'
'networking_'
'flipping_'
'esh'
'continuously_'
'campbell_'
'audiobook_'
'affecting_'
'advances_'
'1945_'
'trends_'
'shell'
'preview_'
'green'
'dvr_'
'cello_'
'ashamed_'
'tri'
'recorder_'
'ov_'
'melancholy_'
'lai'
'kirk_'
'itt'
'has'
'1960_'
'walt_'
'unacceptable_'
'robots_'
'pil'
'hes_'
'eden_'
'distorted_'
'ish'
'aired_'
'wie'
'trou'
'technological_'
'jeans_'
'interactive_'
'imho_'
'guessed_'
'from'
'consequence_'
'53_'
'satan_'
'rogue_'
'orientation_'
'ig'
'icons_'
'fruits_'
'ev'
'contest_'
'sunlight_'
'shaw_'
'sam'
'refined_'
'odor_'
'miss'
'hee'
'glowing_'
'gentleman_'
'dreaming_'
'dealer_'
'alg'
'49'
'stakes_'
'rum'
'how'
'disgusting_'
'cop'
'clunky_'
'weave_'
'tremendously_'
'smarter_'
'playful_'
'mayhem_'
'fe'
'coincidence_'
'wed_'
'phoenix_'
'nde'
'moisture_'
'meth'
'blonde_'
'101_'
'wa_'
'illa'
'ghost'
'finishes_'
'180_'
'through'
'poster_'
'ono'
'mot'
'mea'
'lls_'
'ira'
'harness_'
'glove_'
'abo'
'. '
'still'
'seventh_'
'samuel_'
'iw'
'hm'
'deb'
'commented_'
'59_'
'regrets_'
'mellow_'
'guardian_'
'fulfilled_'
'edo'
'dj_'
'crude_'
'confess_'
'concentrate_'
'begging_'
'vent_'
'traveled_'
'kal'
'heels_'
'feminist_'
'expectation_'
'defeated_'
'coin_'
'clash_'
'betrayed_'
'ark_'
'treasures_'
'scen'
'protectors_'
'positively_'
'loneliness_'
'ions'
'insanity_'
'illi'
'honorable_'
'flavors_'
'deca'
'cooks_'
'accustomed_'
'ables_'
'1993_'
'uno'
'ship'
'psyche_'
'noises_'
'list'
'lic'
'dt'
'crank'
'cheat_'
'aaron_'
'1010_'
'targets_'
'english'
'endorsements_'
'earliest_'
'deserving_'
'bert'
'wildly_'
'uri'
'twitter_'
'percentage_'
'ent'
'bucket_'
'bp'
'blanket_'
'assi'
'admission_'
'vet_'
'rightly_'
'lovable_'
'lis'
'haz'
'gladly_'
'founder_'
'charity_'
'call'
'ambition_'
'187'
'subscription_'
'relatable_'
'realistically_'
'overs'
'mug_'
'goofy_'
'ding'
'dh'
'detect_'
'wald'
'sunny_'
'richer_'
'reminding_'
'oe'
'ech'
'borrowed_'
'1977_'
'rin_'
'pursuing_'
'proceeds_'
'pins_'
'ol'
'mastered_'
'iri'
'founding_'
'ffs_'
'east'
'disconnected_'
'check'
'attributes_'
'structured_'
'ray'
'puppy_'
'note'
'i'
'fa'
'dub_'
'domain_'
'dd'
'darkest_'
'bundle_'
'awake_'
'avoids_'
'ank'
'ama'
'06_'
'wet'
'vocalist_'
'tribe_'
'ths_'
'swallow_'
'obtained_'
'mathematics_'
'mama_'
'make'
'lang'
'ise'
'funniest_'
'concertos_'
'bee'
'basketball_'
'adventurous_'
'tat'
'standpoint_'
'microwave_'
'los'
'lore_'
'infant_'
'his'
'tie'
't'
'owen_'
'mers_'
'dickens_'
'diagrams_'
'ale_'
'tate_'
'ownership_'
'nod_'
'luxury_'
'lends_'
'laden_'
'jar'
'inventive_'
'change'
'annual_'
'accordingly_'
'1988_'
'zan'
'xo'
'song'
'rom_'
'nuances_'
'nda_'
'lessly_'
'eso'
'ect'
'dismiss_'
'creek_'
'unta'
'underw'
'speculation_'
'som'
'reproduction_'
'pauls_'
'must'
'esp'
'converted_'
'1962_'
'voyage_'
'sums_'
'relentless_'
'plo'
'ome'
'joins_'
'imo'
'fer_'
'enforcement_'
'cup'
'allo'
'ain_'
'traps_'
'ime'
'esque_'
'column_'
'bumps_'
'willie_'
'web'
'san'
'murphy_'
'israeli_'
'ich'
'hears_'
'gog'
'deliberate_'
'defect_'
'reserve_'
'med'
'manhattan_'
'link'
'ity'
'breast_'
'arrested_'
'07_'
'usa'
'soprano_'
'olive_'
'inaccurate_'
'greedy_'
'die'
'denial_'
'deeds_'
'cyber'
'yes'
'witnessed_'
'officially_'
'never'
'lm'
'cies_'
'silver'
'rebellion_'
'interviewed_'
'heel_'
'crank_'
'cran'
'couldn8217_'
'cheated_'
'battle'
'ave_'
'ris_'
'maintains_'
'lab'
'kan'
'founded_'
'flour_'
'chronic_'
'beam_'
'ui'
'seeming_'
'sally_'
'rear'
'comprehend_'
'yf'
'pt_'
'porn_'
'pig'
'mi'
'helicopter_'
'dw'
'bf'
'xe'
'vegan_'
'tas'
'spells_'
'publications_'
'plot'
'maintained_'
'ead_'
'1971_'
'18'
'straight'
'soil_'
'place'
'mute_'
'ive'
'intentional_'
'blends_'
'answering_'
'anita_'
'1978_'
'05'
'uncertain_'
'rema'
'promoting_'
'kol'
'jarring_'
'fooled_'
'dire_'
'tight'
'superbly_'
'steel'
'servant_'
'mc_'
'llo'
'jun'
'consequently_'
'bel'
'20s_'
'uniform_'
'suc'
'ninja_'
'nightmares_'
'institute_'
'euro'
'ero'
'digest_'
'betty_'
'ake_'
'twentieth_'
'tighter_'
'sheriff_'
'mining_'
'flashes_'
'emi'
'eld_'
'drive'
'asp'
'abruptly_'
'72_'
'1965_'
'sla'
'rotate_'
'pm'
'lifelong_'
'gd'
'five'
'companys_'
'box'
'trains_'
's3_'
'remo'
'ins'
'compensated_'
'captivated_'
'ap'
'ak_'
'yb'
'widow_'
'usb'
'un'
'stretched_'
'rte'
'rail_'
'poll'
'penguin_'
'oils_'
'mans'
'log'
'kle'
'cracks_'
'yle_'
'wholeheartedly_'
'fran'
'dle_'
'definately_'
'remainder_'
'parody_'
'ove'
'eh_'
'chin'
'wand_'
'roosevelt_'
'prophet_'
'proc'
'pivotal_'
'padded_'
'oneself_'
'invention_'
'evolving_'
'cn'
'ches_'
'associate_'
'anchor_'
'amin'
'trimmer_'
'til_'
'relying_'
'praying_'
'discoveries_'
'conno'
'ab_'
'we'
'watson_'
'start'
'gin_'
'benjamin_'
'wilderness_'
'trainer_'
'stepped_'
'pains_'
'drawbacks_'
'bab'
'1986_'
'unt'
'sea'
'ond'
'ich_'
'guided_'
'grinder_'
'dow'
'branch_'
'addi'
'rescued_'
'ont'
'nora_'
'horrifying_'
'excel_'
'defines_'
'clumsy_'
'blur'
'1961_'
'targeted_'
'homeless_'
'examines_'
'thing'
'thes'
'och'
'lg'
'improves_'
'favorable_'
'cheer_'
'affirm'
'aco'
'?!_'
'trusting_'
'tivo_'
'rece'
'lloyd_'
'dv'
'diseases_'
'view'
'verizon_'
'unexpectedly_'
'sacrifices_'
'oxford_'
'java_'
'headache_'
'diameter_'
'cia'
'cart'
'bullets_'
'ality_'
'abby_'
'000'
'u'
'stuart_'
'pres'
'nw'
'n'
'maiden_'
'lowe'
'lar_'
'griffin_'
'churchill_'
'cameron_'
'thrills_'
'stre'
'stereotypical_'
'soulful_'
'print'
'lousy_'
'headsets_'
'gou'
'adequately_'
'accents_'
'810_'
'yep_'
'rio_'
'reflecting_'
'minis'
'hall'
'establishment_'
'edition'
'conveys_'
'brutality_'
'800'
'regions_'
'rdi'
'peek_'
'hos'
'hack_'
'crop_'
'convoluted_'
'argued_'
'walk'
'ver'
'trivia_'
'sata_'
'salad_'
'maz'
'hc'
'dub'
'descent_'
'commissions_'
'ado'
'yards_'
'sheep_'
'researchers_'
'natalie_'
'mistaken_'
'master'
'look'
'liberals_'
'harvard_'
'expanding_'
'eliminated_'
'documentaries_'
'2013'
'wisely_'
'unlimited_'
'scars_'
'nb'
'immersed_'
'hdd_'
'hal_'
'farmers_'
'eats_'
'easter_'
'dutch_'
'd'
'climbing_'
'barbe'
'tide_'
'sig'
'seg'
'pf'
'meyer_'
'kt'
'kha'
'eri'
'cheers_'
'blender_'
'bang'
'alfred_'
'. . . _'
'zel'
'yle'
'toshiba_'
'steam'
'ski'
'sau'
'sanity_'
'nia_'
'mob'
'meri'
'libraries_'
'excerpts_'
'dp'
'cea'
'arch_'
'xa'
'ven_'
'tis_'
'thank'
'strong'
'socket_'
'inform_'
'guidelines_'
'comb'
'anyones_'
'ame'
'toddler_'
'theaters_'
'telephone_'
'stir_'
'shore_'
'shattered_'
'ral'
'myriad_'
'interpret_'
'intensely_'
'espresso_'
'aba'
'smallest_'
'six'
'oldfashioned_'
'ndi'
'li'
'dice_'
'aries_'
'1987_'
'richly_'
'presidential_'
'netgear_'
'educate_'
'cin'
'03_'
'wrench_'
'tou'
'strat'
'snug_'
'sketches_'
'pho'
'inspector_'
'hiphop_'
'harold_'
'fog_'
'dimensional_'
'concerts_'
'communications_'
'bere'
'tory_'
'stephanie_'
'sentimental_'
'popped_'
'motherboard_'
'ian'
'gas'
'fantasies_'
'erotica_'
'distracted_'
'combining_'
'cholesterol_'
'anticipated_'
'4g_'
'08'
'welle'
'rob'
'ren_'
'relevance_'
'prec'
'narratives_'
'manipulation_'
'incorporated_'
'attacking_'
'900_'
'trent_'
'lyn'
'inga'
'hie'
'wall'
'transfers_'
'thei'
'screwdriver_'
'overe'
'hed'
'hands'
'erc'
'dance'
'caroline_'
'??_'
'step'
'rys_'
'ra'
'phar'
'oon_'
'nis'
'lect'
'jedi_'
'immature_'
'he'
'filmmaking_'
'females_'
'disappears_'
'dev'
'dari'
'behalf_'
'secretly_'
'nne'
'violet_'
'sid'
's4_'
'portraying_'
'parks_'
'melt_'
'kab'
'escapes_'
'cet'
'andrews_'
'sufficiently_'
'safer_'
'pad'
'media'
'lyc'
'jor'
'jay'
'explosion_'
'est'
'wade_'
'swap_'
'sure'
'sided_'
'hostile_'
'horizontal_'
'grease_'
'fyi_'
'disagree'
'dia'
'creators_'
'care'
'birth'
'56'
'07'
'path'
'janet_'
'actionpacked_'
'textures_'
'ria'
'paul'
'noo'
'mir'
'inte'
'insists_'
'floyd_'
'flex_'
'blu'
'300'
'221_'
'vienna_'
'threatens_'
'max'
'inca'
'heros_'
'heated_'
'fort_'
'butter'
'bliss_'
'activate_'
'accomplishment_'
'tuner_'
'tee'
'nonp'
'mos'
'meanings_'
'judgement_'
'jeremy_'
'hong_'
'grabbed_'
'emailed_'
'dysfunctional_'
'communism_'
'bloom_'
'1989_'
'xp'
'tolerance_'
'shaver_'
'rpm_'
'nem'
'investigating_'
'dru'
'dim'
'contra'
'cana'
'beau'
'atomic_'
'allied_'
'uncover_'
'murray_'
'madd'
'firing_'
'ef'
'duck_'
'damned_'
'ceo_'
'beck_'
'adv'
'accommodate_'
'uit'
'towers_'
'radi'
'preferences_'
'pens_'
'leaning_'
'immune_'
'immigrants_'
'giants_'
'dea'
'bosses_'
'approved_'
'107'
'tool'
'tires_'
'stein'
'pilots_'
'pig_'
'offended_'
'mol'
'mastering_'
'ffe'
'cac'
'butler_'
'assemble_'
'apo'
'wallace_'
'vor'
'thickness_'
'team'
'romans_'
'oem_'
'dough_'
'differ_'
'conceived_'
'akin_'
'rese'
'nathan_'
'mara'
'kell'
'jew_'
'hind'
'groundbreaking_'
'enti'
'egyptian_'
'desperation_'
'cum'
'bac'
'scratched_'
'quotations_'
'mentality_'
'late'
'hisher_'
'eyes'
'curtis_'
'copper_'
'carrie_'
'caliber_'
'bt_'
'ashes_'
'unclear_'
'tus_'
'rey_'
'renaissance_'
'po'
'occupied_'
'lees_'
'hro'
'frig'
'expects_'
'doc'
'1000'
'thought'
'ros_'
'judged_'
'efficiency_'
'bei'
'uring_'
'nn'
'lied_'
'im'
'cue_'
'morris_'
'mira'
'ema'
'dyson_'
'cracking_'
'consumed_'
'charismatic_'
'proceed_'
'nokia_'
'luther_'
'ig_'
'ellie_'
'edness_'
'crashing_'
'aria_'
'tt'
'subwoofer_'
'poi'
'penned_'
'martha_'
'inject'
'182'
'vine_'
'summarize_'
'steer_'
'sax_'
'pli'
'pickup_'
'ones'
'nz'
'mee'
'jenny_'
'implemented_'
'def_'
'conditioner_'
'alk'
'warm'
'wandering_'
'progressed_'
'nut'
'np'
'nat'
'kyle_'
'greens_'
'firsthand_'
'eme'
'chairs_'
'bombs_'
'bdsm_'
'audible_'
'twenty'
'tech'
'stop'
'springs_'
'shoots_'
'roth_'
'posting_'
'horizon_'
'fuller_'
'fraud_'
'bd_'
'anonymous_'
'09_'
'uous_'
'ude'
'shampoo_'
'kurt_'
'frontier_'
'bookstore_'
'amps_'
' .. _'
'vic'
'transferred_'
'sublime_'
'reject_'
'mori'
'miniseries_'
'forming_'
'formation_'
'belkin_'
'behindthescenes_'
'arguing_'
'afterward_'
'59'
'4s_'
'topnotch_'
'sma'
'ser_'
'rau'
'mastery_'
'injustice_'
'dots_'
'concluded_'
'chap'
'yst'
'wrong'
'steep_'
'spiral_'
'skype_'
'sensible_'
'sen'
'prep_'
'nda'
'marriages_'
'marketplace_'
'geek_'
'gb'
'exceptions_'
'dances_'
'clueless_'
'clone_'
'ui_'
'straw_'
'ster'
'sr_'
'spider_'
'ritual_'
'repl'
'mgm_'
'marines_'
'helmet_'
'conservatives_'
'clear'
'bothers_'
'state'
'processed_'
'neuro'
'foremost_'
'fix'
'featurettes_'
'bes'
'1982_'
'tracy_'
'stalin_'
'soda_'
'seagate_'
'riley_'
'relaxing_'
'raymond_'
'nol'
'mit'
'inute_'
'hesitation_'
'freezing_'
'emer'
'books'
'1958_'
'showcases_'
'novelty_'
'none'
'mont'
'ley'
'leon'
'joy'
'infa'
'drying_'
'bus'
'boo'
'staring_'
'spin'
'saw'
'ran'
'platinum_'
'oral_'
'notions_'
'nook_'
'nin'
'incidents_'
'imperfect_'
'ide'
'hopeless_'
'fools_'
'divide_'
'bie'
'rig'
'ouse_'
'heartily_'
'gadget_'
'fur_'
'esa'
'eight'
'confronted_'
'brewing_'
'av'
'sore_'
'rhythms_'
'paste_'
'nk_'
'manifest'
'jealousy_'
'ined_'
'hu'
'hon'
'gi_'
'feeder_'
'burton_'
'versa_'
'uss_'
'ugh'
'trumpet_'
'suspected_'
'shout_'
'prevented_'
'palace_'
'oto'
'ort_'
'notorious_'
'lyric_'
'ica'
'easy'
'door'
'convention_'
'chargers_'
'burner_'
'bore_'
'bases_'
'arg'
'weighs_'
'veri'
'tis'
'redundant_'
'jerusalem_'
'jersey_'
'indiana_'
'goe'
'explorer_'
'effortlessly_'
'350_'
'1959_'
'ted'
'swim_'
'stuff'
'quieter_'
'prob'
'premiere_'
'ounces_'
'org'
'lyt'
'cardio_'
'xc'
'urs_'
'tubes_'
'tos'
'sucker_'
'successes_'
'sted_'
'spur'
'qualified_'
'profoundly_'
'or'
'mud_'
'ile'
'damaging_'
'additions_'
'ack'
'wee_'
'tele'
'raz'
'lust'
'ku_'
'ivy_'
'handbook_'
'ek_'
'ect_'
'112'
'. . ._'
'werewolves_'
'wells'
'warrant_'
'tid'
'roc'
'primitive_'
'motorcycle_'
'manuscript_'
'loc'
'insist_'
'hap'
'grinding_'
'1985_'
'solidly_'
'remastering_'
'packages_'
'milli'
'marketed_'
'longevity_'
'leap'
'ean_'
'derek_'
'def'
'tennis_'
'sten'
'rests_'
'probability_'
'pep'
'o'
'mint_'
'lor'
'kai'
'hy_'
'alp'
'92'
'tta_'
'transitions_'
'potato_'
'osi'
'nuanced_'
'lem'
'german'
'feared_'
'dge_'
'adopt_'
'thrust_'
'surreal_'
'shir'
'protestant_'
'lac'
'info'
'edi'
'echoes_'
'dressing_'
'bak'
'abortion_'
'treble_'
'tick_'
'theoretical_'
'romp_'
'lea'
'ellen_'
'behold_'
'appeals_'
'uns'
'pent'
'pasta_'
'nominated_'
'manipulate_'
'justification_'
'digit'
'diff'
'camera'
'await_'
'applicable_'
'tn'
'stats_'
'ske'
'shre'
'scoop_'
'obnoxious_'
'nie_'
'loo'
'kie'
'emerges_'
'dusty_'
'attended_'
'wm'
'virtues_'
'theft_'
'round'
'riti'
'lined_'
'ite'
'eaten_'
'drake_'
'disks_'
'apologize_'
'api'
'aesthetic_'
'6th_'
'vac'
'unto_'
'ree_'
'gratuitous_'
'glenn_'
'equation_'
'sign'
'portraits_'
'plugging_'
'nou'
'lining_'
'leaks_'
'facility_'
'disturbed_'
'canister_'
'910'
'vanilla_'
'ua'
'skillfully_'
'sec'
'savior_'
'ruled_'
'resi'
'ose_'
'noteworthy_'
'lind'
'enr'
'cra'
'conse'
'cater'
'apt'
'youthful_'
'wad'
'transparent_'
'tier_'
'sabbath_'
'riders_'
'quantity_'
'ok'
'notso'
'mcg'
'honey'
'embarrassing_'
'ellis_'
'bounce_'
'......._'
'vulnerability_'
'viable_'
'repeats_'
'privilege_'
'omega_'
'latch_'
'gal'
'equipped_'
'ci_'
'aux_'
'08_'
'llo_'
'lineup_'
'installments_'
'dob'
'daniels_'
'cri'
'cel'
'aga'
'. ... _'
'uniquely_'
'paradigm_'
'nn_'
'mme'
'injuries_'
'bil'
'tolerate_'
'temp'
'scripts_'
'nonexistent_'
'massacre_'
'lk'
'lep'
'kas'
'ius_'
'impe'
'hangs_'
'cube_'
'coated_'
'5s_'
'1981_'
'..., _'
'vers_'
'understated_'
'sweep_'
'startling_'
'oy'
'ida'
'hp'
'enigmatic_'
'cr'
'toner_'
'suspicion_'
'peg'
'outs'
'merry_'
'kid'
'inhabitants_'
'halle'
'evo'
'bun'
'backward_'
'approval_'
'watch'
'screams_'
'punches_'
'niche_'
'lip'
'jab'
'cohesive_'
'clamp_'
'8226_'
'tation_'
'sneak_'
'slept_'
'referenced_'
'personnel_'
'oldest_'
'narrow'
'incidentally_'
'flan'
'aaa_'
'04'
'sep'
'pi_'
'payment_'
'own'
'fridge_'
'flew_'
'cabin_'
'zar'
'yr_'
'uh_'
'tours_'
'rust_'
'ris'
'publicity_'
'profiles_'
'koo'
'ina'
'heli'
'fulfillment_'
'fried'
'bio_'
'zi_'
'unsettling_'
'skull_'
'saver_'
'palpable_'
'pala'
'nam'
'meg_'
'mati'
'layered_'
'ginger_'
'equality_'
'eg'
'disliked_'
'y8217_'
'welfare_'
'sni'
'sect'
'sak'
'rivals_'
'nick'
'humility_'
'hiking_'
'elm'
'denying_'
'cott'
'comical_'
'assignment_'
'accidental_'
'wolf'
'vis_'
'turn'
'pleasures_'
'nis_'
'mindless_'
'mei'
'jewelry_'
'hia'
'heather_'
'generals_'
'explicitly_'
'executives_'
'anticipate_'
'tic'
'roll'
'rie_'
'occupation_'
'matte_'
'futuristic_'
'formatting_'
'endured_'
'discomfort_'
'criticize_'
'artifacts_'
'alley_'
'xt'
'then'
'sustained_'
'stuffed_'
'senator_'
'rele'
'pie'
'morrison_'
'mera'
'gospels_'
'consume_'
'cons'
'autism_'
'aci'
'95'
'2d_'
'unpro'
'tub_'
'squad_'
'ska'
'page'
'novelist_'
'muddy_'
'ignores_'
'ight'
'hoop'
'grabs_'
'gg'
'emphasizes_'
'cro'
'ax_'
'asset_'
'ancestors_'
'again'
';'
'04_'
'ues_'
'tended_'
'shirley_'
'nge'
'melissa_'
'kam'
'gee_'
'ew'
'conveniently_'
'christine_'
'buffs_'
'browns_'
'68'
'150'
'sinatra_'
's8221_'
'rib'
'respectable_'
'mpt'
'monday_'
'jin'
'hinge_'
'gia'
'fury_'
'fred'
'evaluation_'
'buzz_'
'aber'
'ved'
'trails_'
'seals_'
'rts_'
'oda'
'nec'
'measurements_'
'ham'
'gratitude_'
'goo'
'fet'
'dust'
'balancing_'
'approached_'
'wills_'
'sleeves_'
'requirement_'
'refill_'
'recognizing_'
'phe'
'orr'
'ond_'
'lys'
'lass_'
'ched_'
'ator_'
'arcade_'
'ances_'
'97'
'tome_'
'think'
'protects_'
'fashioned_'
'familiarity_'
'fal'
'customs_'
'cheer'
'x3'
'thinkers_'
'repertoire_'
'ral_'
'nte'
'marc'
'lug'
'kos'
'hardy_'
'hang'
'hairs_'
'ese_'
'een'
'distinguish_'
'aver'
'ag'
'acknowledges_'
'accompany_'
'1941_'
'ura_'
'udi'
'slows_'
'outcomes_'
'nell_'
'jury_'
'gui'
'fees_'
'edly_'
'bernard_'
'weaving_'
'vale'
'spo'
'silk_'
'p1'
'mop_'
'ille'
'feminine_'
'fab'
'drumming_'
'chee'
'400'
'thrive_'
'prologue_'
'nch_'
'kun'
'institution_'
'erl'
'beginnings_'
'69_'
'wel'
'papa'
'misa'
'instructor_'
'fic'
'drop'
'chronological_'
'88_'
'year'
'touchscreen_'
'touch'
'thom'
'smoother_'
'sims_'
'responsibilities_'
'mith_'
'idi'
'iconic_'
'et'
'diamonds_'
'cus'
'cuba_'
'buys_'
'announced_'
'adhesive_'
'underp'
'subtly_'
'sses_'
'russians_'
'lut'
'leh'
'kisses_'
'hold'
'ells_'
'elder_'
'conclusion'
'toc'
'opponent_'
'mai'
'irresistible_'
'gna'
'79_'
'where'
'slipping_'
'sa'
'richards_'
'poker_'
'netbook_'
'mirrors_'
'mcco'
'just'
'flicks_'
'curtain_'
'beth'
'beli'
'therapist_'
'sz'
'pick'
'lla'
'heartache_'
'finger'
'ashley_'
'810'
'verify_'
'vatican_'
'tum'
'sob'
'gum_'
'furious_'
'flashing_'
'twist'
'shadow'
'race'
'oswald_'
'guin'
'ete'
'ego'
'disjointed_'
'derived_'
'deep'
'bending_'
'assassins_'
'910_'
'zz'
'woody_'
'vai'
'ri'
'pinch_'
'photographers_'
'lows_'
'edgar_'
'ech_'
'copied_'
'brahms_'
'bench_'
'bela'
'barn'
'add'
'unco'
'seamless_'
'routers_'
'nicole_'
'gt_'
'fisher_'
'filmmaker_'
'cutter_'
'cape_'
'bour'
'tapping_'
'swinging_'
'surroundings_'
'ssa'
'rap'
'pots_'
'overseas_'
'onen'
'money'
'mn'
'jon'
'hec'
'great'
'gon'
'folders_'
'fish'
'explosions_'
'enb'
'elves_'
'cub'
'chloe_'
'blackberry_'
'bikes_'
'ase'
'alan'
'uo'
'unfolding_'
'twa'
'troll'
'tia'
'shaft_'
'pv'
'nic'
'juliet_'
'intervention_'
'face'
'corporation_'
'tting_'
'surge_'
'stupidity_'
'spencer_'
'sas_'
'proposed_'
'nonm'
'merc'
'hour'
'du'
'chor'
'campaigns_'
'armstrong_'
'apple'
'ands'
'wan'
'unit'
'tidbits_'
'rod'
'playstation_'
'identifying_'
'evaluate_'
'dge'
'civilians_'
'cho'
'bon_'
'yw'
'subsequently_'
'stan_'
'shing_'
'scales_'
'props_'
'philharmonic_'
'investors_'
'gross'
'gossip_'
'elastic_'
'dominate_'
'brutally_'
'anxiously_'
'ang_'
'2s_'
' ...._'
' !!!_'
'slip'
'reservation_'
'messiah_'
'endo'
'drags_'
'cell'
'bosch_'
'battling_'
'ap_'
'utt'
'surfing_'
'rol'
'procedures_'
'objectives_'
'laughable_'
'cosmic_'
'apt_'
'anno'
'. ..._'
'tile_'
'ranc'
'peri'
'implementation_'
'horse'
'hen_'
'gallon_'
'fascination_'
'declared_'
'67'
'zy'
'unreleased_'
'positives_'
'ope'
'meaningless_'
'kat_'
'karajan_'
'illuminating_'
'gathered_'
'exhausted_'
'disappearance_'
'deepest_'
'daisy_'
'companions_'
'wra'
'trivial_'
'titanic_'
'sixties_'
'paranoid_'
'nutritional_'
'mm'
'levit'
'envy_'
'entr'
'cm_'
'characteristic_'
'amber_'
'89_'
'wrath_'
'ura'
'tch_'
'stir'
'spy'
'rra'
'lans'
'lace_'
'karl_'
'eth'
'christ'
'bully_'
'blues'
'ach'
'abound_'
'77_'
'vegetable_'
'stirring_'
'seated_'
'mower_'
'magnesium_'
'lyrically_'
'ffi'
'duties_'
'dragon'
'detailing_'
'crave_'
'conce'
'comb_'
'artistry_'
'appendices_'
'antia'
'ally'
'aid'
'zie'
'york'
'traumatic_'
'tos_'
'sunset_'
'powell_'
'observes_'
'nces_'
'misguided_'
'maya_'
'kil'
'hip'
'deceased_'
'barb'
'amor'
'79'
'74'
'sting'
'scheduled_'
'rei'
'prel'
'plasma_'
'nev'
'morals_'
'morally_'
'lackluster_'
'judaism_'
'hog'
'exposing_'
'exaggerated_'
'ende'
'editorial_'
'diagnosis_'
'cular_'
'compression_'
'carson_'
'abs'
'tof'
'sour_'
'mega_'
'lud'
'grid_'
'essentials_'
'epo'
'blow'
'ain'
'7th_'
'worldview_'
'remotes_'
'rejection_'
'quit'
'nylon_'
'kale'
'inge'
'ging'
'folding_'
'1956_'
'wary_'
'trash'
'sud'
'sensation_'
'sarcastic_'
'pi'
'opposing_'
'masterfully_'
'lps_'
'jazz'
'jaw_'
'gibson_'
'complications_'
'caleb_'
'ata'
'wwe_'
'witch'
'unbe'
'needle_'
'malt'
'made'
'dism'
'dip_'
'dee'
'dec_'
'cautious_'
'canvas_'
'business'
'val_'
'patches_'
'parental_'
'osh'
'normal'
'kettle_'
'ively_'
'fax_'
'elusive_'
'rivers_'
'prospective_'
'po_'
'mills_'
'forgiving_'
'downfall_'
'direct'
'warmer_'
'ric'
'preachy_'
'oned_'
'omitted_'
'mccarthy_'
'governor_'
'edgy_'
'convincingly_'
'comedies_'
'armies_'
'alla'
'a1'
'wed'
'tribes_'
'suz'
'mus'
'lum'
'flag'
'finn_'
'erd'
'ep'
'emit'
'e8217_'
'crow_'
'confuse_'
'buddhist_'
'alternating_'
' ; _'
'tomb_'
'omo'
'nna'
'newspapers_'
'masterpieces_'
'madonna_'
'ito'
'inadequate_'
'fin'
'cites_'
'chaotic_'
'bside_'
'angel'
'timothy_'
'tangled_'
'resonate_'
'rect'
'nixon_'
'mesmerizing_'
'lil_'
'elementary_'
'dot'
'ci'
'ande'
'acer_'
'1940s_'
'vir'
'thirteen_'
'ther_'
'sprinkled_'
'sandy_'
'rel'
'ranger_'
'practiced_'
'peters_'
'little'
'isc'
'hurricane_'
'flashback_'
'cradle_'
'wo_'
'wee'
'they8217_'
'spat'
'sera'
'rat'
'rails_'
'rab'
'kits_'
'hr'
'fus'
'enthusiasts_'
'decidedly_'
'crushed_'
'carl'
'bombing_'
'aff'
'jac'
'interfere_'
'hesitant_'
'gur'
'examined_'
'ec_'
'downward_'
'downt'
'dent_'
'cumbersome_'
'assets_'
'vd_'
'uga'
'tell'
'samurai_'
'rim_'
'pictured_'
'inserts_'
'indi'
'enables_'
'disposable_'
'youngest_'
'tolkien_'
'tein_'
'spi'
'plant'
'enchanting_'
'daylight_'
'butterfly_'
'bullying_'
'brother'
'bros_'
'avi'
'93'
'stain_'
'pod'
'omission_'
'mar_'
'interspersed_'
'hitlers_'
'gad'
'fiery_'
'ern'
'drift_'
'dreamed_'
'cousins_'
'buggy_'
'buffalo_'
'blending_'
'agi'
'sw'
'proprietary_'
'pos'
'oke'
'nse'
'moses_'
'lore'
'heir_'
'heavens_'
'expertly_'
'ester_'
'eff'
'een_'
'dorothy_'
'dante_'
'buster_'
'stunned_'
'servers_'
's8217_'
'rich'
'payoff_'
'oba'
'melodrama_'
'mast'
'lego_'
'kei'
'grandparents_'
'fru'
'dual'
'din'
'commercials_'
'cheaply_'
'workings_'
'tail'
'rous'
'rip'
'milk'
'forgetting_'
'enforce'
'dlc_'
'cz'
'criteria_'
'church'
'rug_'
'rta'
'psp_'
'mora'
'luca'
'dubbed_'
'conflicted_'
'coins_'
'02'
'solid'
'philadelphia_'
'mathe'
'marys_'
'lds_'
'gram_'
'focal_'
'disable_'
'chis'
'chains_'
'brin'
'ano_'
'aca'
'vibration_'
'underworld_'
'snaps_'
'pandora_'
'mix'
'miranda_'
'inu'
'harrowing_'
'cordless_'
'buff_'
'atheist_'
'arizona_'
'abra'
'183'
'urg_'
'tional_'
'liam_'
'embedded_'
'cries_'
'contributes_'
'concert'
'bacon_'
'author'
'61_'
'201'
'unse'
'swift_'
'sorely_'
'sing'
'showdown_'
'meters_'
'lf'
'implied_'
'hawaii_'
'extensively_'
'enth'
'duncan_'
'agencies_'
'workplace_'
'wl'
'wat'
'tori'
'ti'
'omg_'
'mounts_'
'horn'
'ella'
'eleanor_'
'bleeding_'
'bert_'
'ard'
'96_'
'63_'
'wer'
'wen'
'undera'
'summon'
'sodium_'
'piper_'
'pageturner_'
'mca'
'lemons_'
'gentle'
'extends_'
'district_'
'bravery_'
'atrocities_'
'adel'
'?._'
'were'
'tes'
'sandisk_'
'modify_'
'leigh_'
'hag'
'faucet_'
'ett'
'essi'
'dish'
'bc'
'ami_'
'ab'
'vin_'
'utilized_'
'preventing_'
'pod_'
'onthe'
'loosely_'
'endeavor_'
'eli_'
'customize_'
'aus'
'tely_'
'swiss_'
'socially_'
'physician_'
'gay'
'cover'
'corny_'
'bath'
'amidst_'
'184'
'tripp'
'terra'
'prevalent_'
'potent_'
'persona'
'monitoring_'
'mon'
'liz_'
'hick'
'flood'
'docking_'
'demo'
'cl'
'cele'
'bacteria_'
'1944_'
'tokyo_'
'terrain_'
'selecting_'
'recognizable_'
'rats_'
'pull'
'pastors_'
'olin'
'htc_'
'haunt_'
'fuss_'
'fest_'
'chan'
'aya'
'ase_'
' '
'yth'
'magic'
'mafia_'
'liv'
'lh'
'lever_'
'ita_'
'indicating_'
'expressive_'
'enclosure_'
'demi'
'converter_'
'chew_'
'biographical_'
'unbelievably_'
'strauss_'
'reno'
'quel'
'peculiar_'
'mbps_'
'lawn_'
'ivi'
'irritated_'
'diapers_'
'dial'
'combinations_'
'civilian_'
'celebrated_'
'ald'
'73'
'vul'
'vera'
'underwater_'
'terri'
'salt'
'organize_'
'olo'
'jill_'
'df'
'cow_'
'clam'
'startup_'
'skinny_'
'professionally_'
'otterbox_'
'nob'
'istan'
'invite_'
'fountain_'
'err'
'dir'
'country'
'bell'
'arm'
'acknowledged_'
'???_'
'unstable_'
'slam_'
'plastic'
'ione'
'gig'
'fastest_'
'dramas_'
'coffee'
'close'
'clari'
'06'
'sweet'
'smash_'
'selfp'
'scrap'
'rk'
'madison_'
'loa'
'kne'
'infi'
'fc'
'faded_'
'craving_'
'climactic_'
'cher'
'arl'
'ambiguous_'
'wool'
'rec'
'potatoes_'
'ha'
'gio'
'gem'
'front'
'fluffy_'
'ade'
'202'
'unin'
'umb'
'swords_'
'sot'
'screw'
'samantha_'
'promoted_'
'pere'
'overcoming_'
'nonre'
'nett'
'mond'
'jared_'
'hydro'
'exposes_'
'excuses_'
'dee_'
'cic'
'chel'
'woman'
'wes_'
'undead_'
'trav'
'soccer_'
'rv'
'portability_'
'nerves_'
'mbs_'
'hitchcock_'
'harmful_'
'fleet_'
'envelope_'
'enlightened_'
'dura'
'crisp'
'compass_'
'code'
'tude_'
'sling'
'sebastian_'
'participation_'
'mg'
'joys_'
'haven_'
'frost'
'elle_'
'deer_'
'deco'
'coworkers_'
'102'
'trick'
'selfhelp_'
'redi'
'nursing_'
'macs_'
'gloss_'
'fort'
'eng'
'dill'
'bald'
'anne'
'510'
'vr'
'outlets_'
'mourn'
'ified_'
'gadgets_'
'effect'
'e'
'cai'
'unwa'
'ung_'
'tame_'
'su_'
'storm'
'sic'
'sage_'
'richness_'
'repa'
'rediscover'
'pas_'
'ount'
'excerpt_'
'complexities_'
'classic'
'aspiring_'
'addict_'
'westerns_'
'sala'
'poets_'
'ph'
'pai'
'mali'
'instincts_'
'highend_'
'gr'
'elephant_'
'dts_'
'depicts_'
'dd_'
'compound_'
'chs_'
'chari'
'bree'
'bernstein_'
'beg'
'babys_'
'attending_'
'aren'
'antic'
'andrea_'
'andi'
'advocates_'
'adrian_'
'zle'
'winners_'
'wea'
'toll_'
'to'
'optimism_'
'mut'
'mage'
'journeys_'
'ht_'
'hil'
'fang'
'f2_'
'exploitation_'
'eld'
'brooding_'
'bites_'
'wagner_'
'tutorial_'
'swoon_'
'sol'
'retreat_'
'ni'
'narrated_'
'martin'
'landed_'
'ely'
'distr'
'dg'
'coe'
'cheapest_'
'bourne_'
'abs_'
'weary_'
'spirited_'
'questioned_'
'paramount_'
'outof'
'opo'
'marc_'
'letdown_'
'ita'
'homosexuality_'
'. : _'
'wp'
'vm'
'subtitle_'
'stocks_'
'punish'
'ost_'
'myr'
'journalism_'
'heavenly_'
'gon_'
'establishing_'
'copying_'
'computer'
'boiling_'
'ats_'
'alignment_'
'wrenching_'
'wrapping_'
'swan_'
'stem_'
'stamp_'
'servants_'
'pend'
'pec'
'od'
'nina_'
'monetary_'
'mids'
'hre'
'glitch_'
'dai'
'controllers_'
'block'
'slips_'
'lovel'
'lol'
'leslie_'
'flames_'
'fist_'
'diving_'
'chills_'
'buddhism_'
'booki'
'beg_'
'via'
'tan'
'steampunk_'
'rop'
'respectful_'
'republicans_'
'pal'
'oms_'
'nova_'
'nci'
'moderately_'
'mack_'
'invites_'
'gimmick_'
'ew_'
'dul'
'delves_'
'breathless_'
'bat'
'!..._'
'tem'
'stills_'
'ma'
'ism'
'gm'
'fors'
'footnote_'
'deu'
'costly_'
'clicks_'
'1983_'
'solo'
'pre_'
'magically_'
'headl'
'hat'
'ety_'
'ere_'
'entity_'
'elon'
'edit'
'dreamy_'
'defending_'
'cod'
'cb'
'carafe_'
'anth'
'welldone_'
'thunder_'
'spark'
'sector_'
'salva'
'rth'
'orch'
'joyce_'
'hide'
'genocide_'
'genes_'
'foul_'
'bett'
'aloud_'
'vivi'
'unders'
'suspend_'
'pris'
'phrasing_'
'optimal_'
'mall_'
'fords_'
'aperture_'
'stick'
'responds_'
'pou'
'por_'
'ozarks_'
'ort'
'nted_'
'lamb_'
'hugely_'
'frost_'
'comforting_'
'chin_'
'bh'
'a'
'87'
'trevor_'
'travelers_'
'searches_'
'redeem_'
'rais'
'patricia_'
'parking_'
'organizational_'
'katherine_'
'govern'
'forgiven_'
'dut'
'dere'
'alcoholic_'
'1939_'
'wd'
'rri'
'kap'
'immigration_'
'defi'
'debris_'
'bout_'
'airs'
'sue'
'smi'
'smack'
'ress'
'reboot'
'pass'
'nded_'
'mb'
'lyn_'
'lecture_'
'lag'
'kay_'
'jani'
'itu'
'duration_'
'cassie_'
'brig'
'amplifier_'
'ull'
'trin'
'surp'
'rumors_'
'river'
'ret'
'replacements_'
'programmed_'
'pic_'
'mw'
'misunderstood_'
'limiting_'
'knocking_'
'joints_'
'critically_'
'cognitive_'
'cas_'
'blink_'
'bling_'
'bec'
'walle'
'tts_'
'tric'
'temperatures_'
'strive_'
'slippery_'
'resume_'
'repe'
'logi'
'instinct_'
'hur'
'folds_'
'coop_'
'catch'
'vince_'
'tib'
'threaten_'
'tasting_'
'suspension_'
'rm'
'nont'
'lus'
'kath'
'imi'
'ih'
'gregory_'
'foundations_'
'floor'
'exceeded_'
'dest'
'dancers_'
'cleared_'
'09'
'vain_'
'tal'
'swedish_'
'savor_'
'pap'
'oat'
'liberation_'
'iron'
'insecurities_'
'hear'
'glori'
'examining_'
'denn'
'chev'
'belle_'
'2012'
'vitamins_'
'tucker_'
'tically_'
'temporarily_'
'sewing_'
'ripping_'
'pr_'
'nano_'
'md'
'isla'
'ioni'
'inn_'
'gripes_'
'configure_'
'blended_'
'1940_'
'toast_'
'thor_'
'sp_'
'shuffle_'
'reduces_'
'recurring_'
'pouring_'
'polar_'
'pistol_'
'intellect_'
'hypothesis_'
'ghz_'
'evan_'
'deftly_'
'archives_'
'wiped_'
'unwilling_'
'tok'
'the'
'syn'
'subtlety_'
'rhetoric_'
'preface_'
'outfit_'
'oun'
'omit'
'intake_'
'content'
'arn'
'acc'
'160'
'worldbuilding_'
'uti'
'tain'
'reformed_'
'reader'
'pagan_'
'ong'
'evenly_'
'dragging_'
'cc_'
'bud'
'apocalyptic_'
'130_'
'wonder'
'prim'
'loan_'
'jur'
'detached_'
'cess'
'anyhow_'
'tarot_'
'sac'
'professors_'
'monumental_'
'kidnapping_'
'ils_'
'iet'
'idol_'
'extender_'
'eis'
'delightfully_'
'brotherhood_'
'batt'
'audi'
'ail'
'accompaniment_'
'voice'
'vendors_'
'tart'
'snack_'
'selfre'
'remaster_'
'pira'
'philosopher_'
'pas'
'nov_'
'mids_'
'match'
'lesbian_'
'iu'
'fiddle_'
'fd'
'emp'
'eagle_'
'dant'
'containers_'
'conquer_'
'board'
'94'
'spar'
's2_'
'rest'
'render_'
'remedy_'
'phenomena_'
'funding_'
'enthusiast_'
'eck'
'covenant_'
'cohen_'
'clarify_'
'chore_'
'carolina_'
'aug'
'your'
'voi'
'une'
'svi'
'stains_'
'socio'
'other'
'occurring_'
'nuance_'
'kit'
'iva'
'hazard_'
'expedition_'
'exhibit_'
'viewpoints_'
'soothing_'
'resembles_'
'rand'
'psycho_'
'omp'
'nsi'
'mick_'
'inse'
'indoors_'
'expresses_'
'entrance_'
'dece'
'countryside_'
'completion_'
'cari'
'accomplishments_'
'vl'
'unlocked_'
'ther'
'spit'
'scares_'
'radio'
'prep'
'palm'
'nutshell_'
'medication_'
'mble'
'la'
'erin_'
'elf'
'dread_'
'diaries_'
'childish_'
'boxing_'
'9658_'
'71_'
'yarn_'
'vaguely_'
'strange'
'rotation_'
'overw'
'lau'
'hin'
'evel_'
'ents_'
'ead'
'depicting_'
'choppy_'
'casey_'
'baked_'
'unravel_'
'ulo'
'tomtom_'
'stray_'
'soso_'
'societal_'
'rattle_'
'ranges_'
'pimp'
'mine'
'medi'
'mansion_'
'judges_'
'erg_'
'distract_'
'trunk_'
'teen'
'specially_'
'rti'
'outlined_'
'mandatory_'
'louise_'
'employment_'
'diane_'
'detection_'
'corr'
'asa'
'aboard_'
'tweak_'
'seattle_'
'sans_'
'promptly_'
'ming'
'matte'
'efe'
'dancer_'
'au'
'weber_'
'undeniable_'
'symbolism_'
'stomp'
'spiritually_'
'scarlet_'
'raw'
'proposal_'
'posed_'
'pol'
'nice'
'minimize_'
'locally_'
'kers_'
'fear'
'calm'
'brandon_'
'barri'
'bard'
'siti'
'sams_'
'prime'
'prem'
'oul'
'maria'
'hest'
'defects_'
'dawkins_'
'capsule_'
'angu'
'86'
'wartime_'
'unreliable_'
'submit_'
'sparse_'
'singular_'
'rhe'
'pb'
'parr'
'ingo'
'hobby_'
'gala'
'frankenstein_'
'conjunction_'
'boil_'
'arian_'
'21'
'unwanted_'
'sister'
'peni'
'helpless_'
'gambling_'
'folk'
'expressing_'
'conquer'
'conflicting_'
'clippings_'
'bb_'
'abbey_'
'220'
'whistles_'
'visitors_'
'spoon_'
'shops_'
'shane_'
'scan'
'routines_'
'quarters_'
'productivity_'
'oti'
'mileage_'
'hitch_'
'heir'
'friction_'
'broad'
'analyze_'
'aar'
'ume'
'uli'
'ola_'
'non'
'mon_'
'martyr'
'isaac_'
'inconvenience_'
'defender_'
'colonial_'
'chases_'
'chan_'
'blatant_'
'bia'
'banana_'
'97_'
'till'
'strokes_'
'sei'
'rica'
'oil'
'oi'
'midway_'
'male'
'ips_'
'health'
'fri'
'fau'
'designing_'
'bogged_'
'beard_'
'93_'
'welcomed_'
'tne'
'sup'
'should'
'schemes_'
'prima'
'launched_'
'eloquent_'
'dismissed_'
'contrasts_'
'cke'
'chill_'
'certainty_'
'brooklyn_'
'arrows_'
'tribal_'
'thel'
'tara_'
'sampling_'
'representing_'
'postp'
'persistent_'
'neu'
'moor'
'mist_'
'leti'
'ik_'
'homosexual_'
'fig'
'esse'
'escaping_'
'dogg'
'conversational_'
'calorie_'
'burg_'
'axe_'
'we8217_'
'variable_'
'sity_'
'seat'
'reynolds_'
'residue_'
'raven_'
'product'
'opus_'
'mitch_'
'garr'
'family'
'divorced_'
'christs_'
'cape'
'arch'
'actresses_'
'whe'
'weather'
'ud_'
'soo'
'outlines_'
'nephew_'
'mixer_'
'ira_'
'grammatical_'
'fuse_'
'exile_'
'embarrassed_'
'circular_'
'bud_'
'axis_'
'anal'
'revel'
'par'
'juvenile_'
'inb'
'hides_'
'dys'
'counterparts_'
'conf'
'angela_'
'yh'
'years'
'turb'
'transported_'
'tearing_'
'tam'
'swo'
'si'
'shop'
'reservoir_'
'philosophers_'
'multip'
'kw'
'jet'
'hug'
'homemade_'
'accounting_'
'wr'
'witt'
'urn_'
'synch'
'specialized_'
'snow'
'slaughter_'
'sie'
'selfa'
'scoring_'
'rem'
'ravi'
'radios_'
'particles_'
'orb'
'manufacture_'
'jaded_'
'infectious_'
'inconsistencies_'
'ido'
'frog_'
'doll'
'distinguished_'
'detectives_'
'darwin_'
'cuban_'
'5m'
'..'
'woke_'
'vp'
'visceral_'
'vinegar_'
'uch_'
'sio'
'rate'
'porter_'
'meg'
'lub'
'linger_'
'kis_'
'jag'
'hh_'
'farmer_'
'dubious_'
'desirable_'
'democrats_'
'dart'
'crossover_'
'creations_'
'caul'
'captive_'
'bleed_'
'710_'
'stevens_'
'spooky_'
'spies_'
'sda'
'predecessors_'
'orc'
'mow'
'mor'
'metaphors_'
'ller_'
'lec'
'grabbing_'
'equa'
'eq_'
'embraced_'
'ag_'
'achi'
'89'
'yield_'
'thi'
'stale_'
'same'
'rog'
'preserved_'
'nim'
'neck'
'juicer_'
'ire'
'inp'
'gestures_'
'excels_'
'every'
'ebooks_'
'doug_'
'computing_'
'yon'
'ukraine_'
'suns'
'regency_'
'pretentious_'
'mop'
'menace_'
'egg'
'chronicle_'
'wor'
'regional_'
'perfect'
'osa'
'leaking_'
'jeffrey_'
'idiots_'
'vene'
'relieved_'
'raped_'
'rambling_'
'rail'
'prodig'
'overdone_'
'nch'
'manipulated_'
'loop'
'grad'
'gent_'
'diabetes_'
'considerations_'
'aine_'
'symbolic_'
'sylv'
'sciences_'
'quoting_'
'mash'
'logically_'
'irre'
'ior'
'instruct'
'director'
'blurb_'
'bicycle_'
'behaviour_'
'1957_'
'vita_'
'skate'
'polite_'
'plin'
'pear'
'mart'
'loose'
'defensive_'
'cushion_'
'brim'
'blogs_'
'aj'
'3d'
'xl_'
'thieves_'
'tennessee_'
'slayer_'
'sati'
'mum'
'kru'
'kaz'
'herbert_'
'heat'
'grainy_'
'geno'
'frances_'
'fora'
'crowded_'
'cringe_'
'bg'
'anatomy_'
'wear'
'umm'
'sydney_'
'storing_'
'shun'
'quicken_'
'limitation_'
'lean'
'intellectually_'
'inci'
'even'
'disastrous_'
'dab'
'conve'
'checks_'
'carlos_'
'assist'
'arrogance_'
'123'
'will'
'warns_'
'wag'
'toe'
'tap'
'tand'
'slay'
'rush'
'rent'
'reissued_'
'rapp'
'proto'
'newcomers_'
'martins_'
'jud'
'jazzy_'
'germ'
'construct_'
'benefited_'
'119'
'zon'
'yg'
'user'
'nding_'
'legion_'
'lament'
'kansas_'
'itte'
'hockey_'
'godzilla_'
'emerged_'
'downloads_'
'deposit'
'breakthrough_'
'blankenshipthe_'
'bait_'
'zel_'
'sympathize_'
'sow'
'sketch_'
'sag'
'range'
'mirror'
'integrate_'
'harr'
'colorado_'
'bra_'
'baggage_'
'b00'
'aiming_'
'1920s_'
'wax'
'trip'
'tess_'
'street'
'smack_'
'scal'
'prog_'
'patterson_'
'liz'
'gno'
'ghe'
'everytime_'
'drunken_'
'chas'
'brun'
'ased_'
'anthem_'
'wb'
'spoiler'
'realms_'
'pure'
'odyssey_'
'move'
'hotter_'
'funk'
'finder_'
'esti'
'endlessly_'
'eit'
'drip_'
'dome_'
'dads_'
'courts_'
'confession_'
'confederate_'
'album'
'synth_'
'sv'
'rotating_'
'receipt_'
'pg'
'mccl'
'kung_'
'guide'
'gi'
'flowed_'
'compensate_'
'charms_'
'candle_'
'blur_'
'audiophile_'
'articulate_'
'unconscious_'
'thunder'
'rah'
'pumping_'
'pd'
'major'
'llen'
'linksys_'
'kings'
'jacksons_'
'homi'
'fb'
'dining_'
'buddies_'
'balances_'
'anis'
'! '
'tud'
'rhythmic_'
'repairs_'
'rabbi_'
'quer'
'lennon_'
'evidently_'
'dos'
'displaying_'
'dina'
'criticized_'
'creed_'
'connor_'
'bw'
'boss'
'ascend'
'analogy_'
'yearning_'
'tax'
'spreading_'
'spins_'
'shoe'
'scored_'
'refu'
'recounts_'
'rati'
'plethora_'
'ple_'
'num'
'nst'
'lick_'
'interrupted_'
'ien'
'hou'
'highlighting_'
'earp'
'div'
'cassette_'
'bradley_'
'aud'
'.; _'
'wise'
'parti'
'mila'
'inm'
'iner'
'imaginary_'
'budding_'
'zones_'
'watchable_'
'versatility_'
'tristan_'
'sweetness_'
'shannon_'
'requested_'
'profanity_'
'nav'
'monte'
'masc'
'kni'
'kis'
'indispensable_'
'har'
'got'
'glad'
'garlic_'
'frame'
'fitz'
'file'
'f1_'
'curt'
'col'
'blunt_'
'74_'
'uce'
'traveler_'
'touchpad_'
'sre'
'righteous_'
'recruit'
'privileged_'
'pis'
'onet'
'need'
'nal'
'murderous_'
'monta'
'lethal_'
'hoot_'
'hob'
'history'
'hers'
'gluten_'
'g1'
'charl'
'aye'
'aw_'
'amo'
'afterlife_'
'vat'
'uar'
'talk'
'mitt'
'lave'
'jacques_'
'hul'
'hug_'
'harvest_'
'gop'
'freezer_'
'frankie_'
'db_'
'chand'
'cannon_'
'begs_'
'barnes_'
'banking_'
'andre'
'y34_'
'tter'
'sixteen_'
'sensors_'
'sec_'
'rela'
'notwithstanding_'
'napoleon_'
'kins'
'bow'
'blessings_'
'berg'
'ban_'
'amer'
'adoption_'
'82_'
'2m'
'vu'
'vizio_'
'swings_'
'south'
'ronald_'
'rituals_'
'rite_'
'quibbles_'
'prot'
'prompt_'
'offset_'
'jas'
'ited_'
'financially_'
'fication_'
'distress_'
'din_'
'det'
'dau'
'cht'
'blockbuster_'
'arnold_'
'ww_'
'system'
'shawn_'
'scrolling_'
'replied_'
'reac'
'pronounced_'
'pher'
'neglect_'
'mississippi_'
'manners_'
'lady'
'kk'
'ipa'
'hulk_'
'hri'
'ereader_'
'dand'
'!!!!!_'
'wt'
'uss'
'uct'
'tourist_'
'squeak'
'sharpness_'
'rosa'
'prejudices_'
'powerfully_'
'perceive_'
'ork'
'kenny_'
'jeff'
'control'
'chic'
'cha_'
'bill'
'bel_'
'barriers_'
'avengers_'
'authorized_'
'af_'
'yer_'
'wol'
'velvet_'
'terminology_'
'tali'
'sentiment_'
'robert'
'rhonda_'
'postwar_'
'periodically_'
'nm'
'ndr'
'kindly_'
'invitation_'
'fei'
'eil'
'devil'
'crashed_'
'clap'
'candid_'
'admi'
'uber'
'sonics_'
'snippets_'
'secured_'
'say'
'sailing_'
'rik'
'monica_'
'insur'
'einstein_'
'eed_'
'dness_'
'demonstrating_'
'committee_'
'bailey_'
'autumn_'
'attributed_'
'amazon'
'aha'
'adol'
'88'
'87_'
'x1'
'wave'
'want'
'thy_'
'sonatas_'
'publicly_'
'paste'
'moneys_'
'loosen_'
'keynes_'
'journals_'
'its'
'iko'
'hunt'
'conception_'
'compressed_'
'chau'
'bod'
'beh'
'.'
'wan_'
'viola_'
'thorn'
'stevie_'
'sters_'
'rien'
'operated_'
'obligation_'
'marrying_'
'enhances_'
'earns_'
'destroys_'
'chuck'
'chai'
'boats_'
'520'
'ute'
'unconventional_'
'thr'
'themed_'
'repaired_'
'ols'
'n1'
'marathon_'
'lr'
'ein'
'disorders_'
'devoid_'
'cleans_'
'characterizations_'
'bone'
'aly'
':..._'
'600'
'widespread_'
'voiced_'
'unseen_'
'retrospect_'
'restrained_'
'prom'
'mouth'
'malcolm_'
'jp'
'journalists_'
'inspires_'
'hab'
'eal'
'dreadful_'
'adulthood_'
'710'
'1942_'
'stickers_'
'stepbystep_'
'sonys_'
'sole'
'rn'
'rke'
'protest'
'patron'
'm'
'hast'
'droid_'
'credited_'
'counted_'
'abroad_'
'84_'
'yar'
'tags_'
'sso'
'sonny_'
'sculpt'
'rushing_'
'retract'
'predator_'
'inviting_'
'ingenious_'
'graves_'
'diet'
'crawl_'
'coast'
'canto'
'uro'
'unplugged_'
'tramp'
'torch_'
'strengthen_'
'storms_'
'staple_'
'shal'
'safe'
's2'
'revolves_'
'rev_'
'ress_'
'preceding_'
'olympus_'
'naughty_'
'issa'
'inventory_'
'formidable_'
'drastically_'
'correction_'
'coloring_'
'blea'
'yelling_'
'wein'
'towels_'
'thumb'
'succinct_'
'spill_'
'schubert_'
'recalls_'
'proportions_'
'positioned_'
'merri'
'lott'
'leon_'
'guitar'
'cus_'
'christie_'
'bloggers_'
'armo'
'arabic_'
'180'
'128'
'xtr'
'upstairs_'
'unbr'
'tore_'
'thor'
'supervisor_'
'rubbing_'
'ps4_'
'presidency_'
'marx_'
'lot'
'kb'
'hew'
'fm'
'finely_'
'exo'
'engines_'
'dorm'
'anni'
'adjust'
'above'
'tattoo_'
'sphere_'
'rollercoaster_'
'refusing_'
'protest_'
'multitude_'
'methodology_'
'measurement_'
'jock'
'heshe_'
'fon'
'estimate_'
'caveats_'
'shel'
'sas'
'roe'
'rne'
'reappear'
'ousness_'
'ndo'
'mess'
'megan_'
'marred_'
'indo'
'inconvenient_'
'halt_'
'freak'
'flynn_'
'ferre'
'dunn'
'car'
'cand'
'brown'
'atic_'
'alin'
'81_'
'vie_'
'usti'
'tti_'
'tria'
'traces_'
'thermostat_'
'tale'
'soviets_'
'newton_'
'membership_'
'icing_'
'elegance_'
'commend_'
'cles_'
'canned_'
'canal_'
'act'
'acqui'
'ums_'
'tangent'
'pretending_'
'opted_'
'onboard_'
'knack_'
'ital'
'fivestar_'
'finn'
'fidelity_'
'ell'
'curl_'
'copy'
'casino_'
'bryan_'
'bergs_'
'alized_'
'yc'
'urgency_'
'tu'
'thea'
'tendencies_'
'statistical_'
'slang_'
'rig_'
'reali'
'pub'
'prosperity_'
'pia'
'pars'
'nell'
'meli'
'lions_'
'iled_'
'hus'
'humidity_'
'ext'
'equals_'
'dod'
'copeland_'
'cond'
'bl'
'ari_'
'3ds_'
'13th_'
'103'
'ult'
'sull'
'stitch_'
'squi'
'spit_'
'slipped_'
'scott'
'nicks_'
'medica'
'massage_'
'jacobs_'
'infinity_'
'imply_'
'honored_'
'hating_'
'hack'
'expend'
'enthralling_'
'addendum_'
'69'
'18th_'
'vo_'
'tribu'
'tog'
'script'
'rid'
'retains_'
'regi'
'psychedelic_'
'porta'
'pink'
'monks_'
'manipulative_'
'keen'
'havoc_'
'haa'
'grandson_'
'disciples_'
'conan_'
'cliches_'
'700'
'1954_'
'zoe_'
'uff'
'towns'
'taller_'
'sty'
'speeches_'
'soak_'
'snor'
'obe'
'nerve_'
'mayor_'
'marsh'
'lv'
'grass'
'fw'
'frustrations_'
'enthralled_'
'descend'
'currency_'
'cide'
'barc'
'wakes_'
'tiresome_'
'tint'
'sens'
'reso'
'prefers_'
'prat'
'poc'
'oka'
'nest'
'maha'
'hudson_'
'hinted_'
'highquality_'
'hes'
'healthcare_'
'grit_'
'gardens_'
'conci'
'bona'
'yellow'
'undi'
'unb'
'umbrella_'
'swivel_'
'orl'
'noticing_'
'nj'
'minat'
'mie'
'loops_'
'isnt_'
'icon'
'gradual_'
'gilbert_'
'gabe_'
'fitbit_'
'erty_'
'erg'
'ender_'
'catalogue_'
'barrier_'
'ava'
'archer_'
'tures_'
'troubling_'
'syrup_'
'skim_'
'refresh_'
'proceedings_'
'onde'
'mpl'
'maxim'
'maine_'
'kg'
'industries_'
'git'
'fry_'
'event'
'discourse_'
'conveyed_'
'cod_'
'classy_'
'0m'
'ula_'
'troubleshooting_'
'transportation_'
'tir'
'stern_'
'ppl'
'pitcher_'
'nth'
'irrational_'
'impatient_'
'footprint_'
'epi'
'citr'
'cherish_'
'bai'
'yr'
'unresolved_'
'thematic_'
'socialist_'
'savor'
'onl'
'neys_'
'jane'
'inhuman'
'infl'
'hughes_'
'gree'
'flin'
'cul'
'contributing_'
'contradictions_'
'bau'
'anders'
'ador'
'84'
'yah'
'winters_'
'wander_'
'ug'
'terrified_'
'tensions_'
'seductive_'
'sandwich_'
'peanut_'
'passenger_'
'oint'
'metro'
'margin_'
'lash_'
'kot'
'firm'
'dons_'
'chia'
'august'
'wreck'
'viv'
'uv_'
'teddy_'
'share'
'responding_'
'perse'
'ohio_'
'nh'
'manuals_'
'magnets_'
'lest_'
'kc'
'intuition_'
'instrumentation_'
'concentrated_'
'characters'
'uran'
'tying_'
'trade'
'skit'
'riv'
'pse'
'perceptions_'
'outing_'
'ota'
'narrators_'
'mouse'
'lingering_'
'gov'
'exe'
'equi'
'cit'
'cheek_'
'bull'
'warrant'
'trio'
'snap'
'sive_'
'seas_'
'rov'
'remi'
'railroad_'
'para_'
'overkill_'
'offs'
'mul'
'm1'
'kes'
'joey_'
'interpreted_'
'ingb'
'diminished_'
'cula'
'crosses_'
'cca'
'agn'
'activated_'
'acce'
'warehouse_'
'turtle_'
'tomato_'
'resting_'
'renewed_'
'plug'
'percy_'
'mov'
'keepers_'
'ilit'
'hysterical_'
'depart'
'davids_'
'committing_'
'cigarette_'
'cecil'
'2a'
'trust'
'treatise_'
'reli'
'pond_'
'pissed_'
'outweigh_'
'operates_'
'natures_'
'jee'
'embracing_'
'clock'
'bart'
'atl'
'athletes_'
'appliance_'
'ando'
'align_'
'achieves_'
'sharon_'
'service'
'sadistic_'
'praised_'
'pierre_'
'peril_'
'nect'
'navigating_'
'melodramatic_'
'greece_'
'glare_'
'debates_'
'cancel_'
'bund'
'bic'
'wouldn8217_'
'tweaking_'
'tails_'
'speculative_'
'slowed_'
'sidekick_'
'sassy_'
'reviews'
'present'
'predicted_'
'poke'
'passions_'
'nen'
'nemesis_'
'kel'
'insulting_'
'infected_'
'firms_'
'erase_'
'eag'
'dip'
'decca_'
'davies_'
'avery_'
'adolescent_'
'uncommon_'
'surf_'
'rvi'
'outla'
'next'
'marilyn_'
'lithium_'
'laugh'
'lati'
'erm'
'cord'
'combat'
'abundant_'
'1953_'
'tort'
'temper_'
'tb_'
'ssu'
'specialist_'
'resist'
'rekindled_'
'profess'
'pluck'
'ovi'
'ote_'
'mam'
'laced_'
'iq_'
'ghetto_'
'geography_'
'fatigue_'
'esp_'
'breadth_'
'boredom_'
'blan'
'bare'
'820'
'tami'
'sustainable_'
'stink'
'searched_'
'refurbished_'
'quarter'
'leaps_'
'coco'
'brake_'
'wheel'
'valued_'
'swh'
'substantially_'
'spike_'
'sie_'
'sensibilities_'
'rist'
'rena'
'rays_'
'prog'
'preferable_'
'nders_'
'medal_'
'led'
'kent_'
'ife_'
'horne'
'hopkins_'
'heartbeat_'
'gri'
'gai'
'froth'
'firstrate_'
'elevated_'
'chick'
'amend'
'accidents_'
'zoo_'
'ular_'
'train'
'tle_'
'third'
'spout_'
'sharper_'
'retro_'
'opt_'
'oblivion_'
'north'
'kro'
'ique_'
'fork_'
'crow'
'allan_'
'veggies_'
'specifications_'
'sof'
'ross'
'raging_'
'pret'
'practitioners_'
'nig'
'ncy_'
'lessness_'
'immigrant_'
'humm'
'hanger_'
'haha_'
'frag'
'exploits_'
'exi'
'ember'
'distributed_'
'alls_'
'3000_'
'xb'
'tua'
'tooth'
'tent'
'smiles_'
'rox'
'revision_'
'pastoral_'
'ook'
'obs'
'games'
'flirt'
'experimentation_'
'erst'
'delta_'
'bala'
'atheists_'
'ada_'
'. ;_'
'weld'
'twisting_'
'shady_'
'priorities_'
'prescription_'
'partnership_'
'meat'
'mae'
'jargon_'
'hardships_'
'feb_'
'farewell_'
'cursed_'
'chunk_'
'camel'
'aero'
',...'
'verified_'
'tran'
'tragedies_'
'pers_'
'nv'
'module_'
'misunderstanding_'
'mann'
'liver_'
'intro'
'ibi'
'heavy'
'gypsy_'
'gloria_'
'dexter_'
'cath'
'aced_'
'17'
'zeppelin_'
'zelda_'
'undercover_'
'toma'
'thet'
'sey_'
'seduction_'
'sed'
'sail'
'rh'
'rees'
'preacher_'
'parade_'
'obsessive_'
'nifty_'
'misca'
'inks_'
'impeccable_'
'healed_'
'ged'
'flicker'
'ega'
'deci'
'astra'
'abb'
'tta'
'travelling_'
'tow'
'supporters_'
'sett'
'scissors_'
'pristine_'
'nan_'
'messing_'
'litter'
'ld'
'kla'
'investigator_'
'incapable_'
'illa_'
'gag_'
'field'
'evokes_'
'estr'
'engrossed_'
'crushing_'
'constraints_'
'atri'
'amm'
'420'
'yrs_'
'rainy_'
'quasi'
'preach_'
'powers'
'mik'
'ln'
'lantern_'
'kerr'
'hotels_'
'fiction'
'estimated_'
'di'
'detroit_'
'coping_'
'compel'
'cas'
'cara'
'bees_'
'vga_'
'upbringing_'
'uncovered_'
'tissue_'
'thur'
'slav'
'siege_'
'rot'
'romeo_'
'plagued_'
'pigs_'
'paranoia_'
'pale'
'orth_'
'observer_'
'ication_'
'herbs_'
'hay_'
'handset_'
'fallout_'
'etic_'
'asylum_'
'yma'
'tutorials_'
'smith'
'regain_'
'possesses_'
'pierce_'
'pha'
'nos'
'nonc'
'lint_'
'interrupt'
'gibb'
'gangster_'
'deaf_'
'corpse_'
'chen_'
'bri'
'blair_'
'backlight_'
'associates_'
'131'
'unnecessarily_'
'troy_'
'survives_'
'sketch'
'pee_'
'mate'
'leu'
'jen'
'hub'
'expands_'
'ecu'
'cap'
'bin'
'allinall_'
'alaska_'
'afford'
'wei'
'uploaded_'
'tard'
'reinforce_'
'poli'
'orph'
'insecure_'
'idio'
'float_'
'exec'
'employ_'
'draw'
'chime'
'aims_'
'zoom'
'yy'
'uf'
'tical_'
'sense'
'prospect_'
'oner'
'lym'
'lis_'
'hum_'
'hog_'
'eba'
'dde'
'christian'
'carpenter_'
'apollo_'
'alc'
'actor'
'160_'
'wide'
'uria'
'slum'
'reh'
'passengers_'
'job'
'independently_'
'ho'
'cope'
'campy_'
'ary'
'94_'
'unbo'
'thermo'
'template_'
'shuts_'
'rut'
'rac'
'objecti'
'melanie_'
'le'
'katniss_'
'gis'
'fx_'
'draft'
'attribute_'
' ?_'
'unconditional_'
'technic'
'specifics_'
'songwriter_'
'sia_'
'ruining_'
'painter_'
'outtakes_'
'nine'
'nat_'
'miami_'
'lus_'
'lowered_'
'inspect'
'ican'
'guru_'
'expe'
'espionage_'
'efi'
'dum'
'continu'
'communicating_'
'bust_'
'1955_'
'zune_'
'schw'
'sarcasm_'
'prere'
'palmer_'
'ood'
'og_'
'nun'
'model'
'intensive_'
'horrendous_'
'hf'
'hate'
'gru'
'formulaic_'
'formerly_'
'eg_'
'effortless_'
'disp'
'definitions_'
'crosby_'
'contemplating_'
'cheering_'
'blocking_'
'73_'
'wand'
'waits_'
'try'
'seriousness_'
'peer_'
'nono'
'moods_'
'melting_'
'lex'
'gateway_'
'fingerprints_'
'elf_'
'ej'
'dvdr'
'dor_'
'dissolve'
'digitally_'
'dela'
'consult_'
'cf'
'blurry_'
'bagg'
'alleged_'
'af'
'unusable_'
'undergo'
'ting'
'stumbled_'
'sba'
'ribbon_'
'plotline_'
'ninth_'
'nearest_'
'msi'
'mcke'
'iris_'
'imagining_'
'hindsight_'
'gue'
'engineered_'
'emotion'
'crack'
'circumstance_'
'centric_'
'carol'
'atlas_'
'stair'
'slasher_'
'shooters_'
'rde'
'radically_'
'quintet_'
'p2'
'mir_'
'lew'
'krist'
'keye'
'john'
'guild_'
'erna'
'coal_'
'cleanup_'
'branches_'
'yank'
'recovered_'
'othe'
'ost'
'nab'
'mund'
'mont_'
'let'
'lamps_'
'joshua_'
'introspective_'
'ial'
'grow'
'grandma_'
'glass'
'gir'
'fullf'
'erb'
'eclectic_'
'dwar'
'character'
'catholicism_'
'candidates_'
'bye_'
'banned_'
'american'
'ago'
'adver'
'wellbeing_'
'version'
'unfor'
'turk'
'terminal_'
'stun'
'shout'
'quin'
'provider_'
'pow'
'peace'
'mud'
'iv'
'hin_'
'headaches_'
'gren'
'grad_'
'explode_'
'dop'
'distances_'
'cyr'
'coll'
'cassi'
'booth_'
'aligned_'
'uta'
'uned'
'sensational_'
'rave'
'pyr'
'punch'
'prop_'
'ppe'
'photographic_'
'overt'
'nea'
'lex_'
'isbn_'
'ideally_'
'hefty_'
'gol'
'gib'
'frequencies_'
'evoke_'
'ehe'
'devotional_'
'd2'
'casts_'
'caesar_'
'bruc'
'browse_'
'atory_'
'a2'
'thie'
'sacrificing_'
'poe_'
'kom'
'jung'
'interplay_'
'hara'
'framed_'
'fairytale_'
'earths_'
'disguise_'
'countrys_'
'anguish_'
'1943_'
'urs'
'unusually_'
'unsatisfying_'
'tens_'
'tens'
'swan'
'streak_'
'sid_'
'radiat'
'quake'
'oregon_'
'once'
'ning'
'multi_'
'mort'
'lynch_'
'ird_'
'inso'
'hazard'
'gam'
'gallo'
'epa'
'discern'
'cooperation_'
'cinderella_'
'cautionary_'
'calcium_'
'buckle_'
'179'
'whip_'
'wellre'
'wc'
'trinity_'
'stressed_'
'stor'
'shim'
'rhymes_'
'ressi'
'quality'
'ply'
'plate'
'misc'
'lotion_'
'investigations_'
'ges'
'fundamentally_'
'doyle_'
'ceremony_'
'burn'
'bounce'
'92_'
'wipes_'
'trite_'
'tot'
'sj'
'pers'
'pall'
'oxygen_'
'mocking'
'lo'
'lili'
'ledge'
'humor'
'extremes_'
'eras_'
'declaration_'
'carre'
'boc'
'bestselling_'
'aspir'
'ache'
'whining_'
'wacky_'
'vietnamese_'
'toms_'
'synthetic_'
'sut'
'smug'
'slat'
'revival_'
'nonstick_'
'nave_'
'lectures_'
'jami'
'intertwined_'
'idle_'
'hood'
'harp'
'freeman_'
'communists_'
'colony_'
'bumper_'
'bedtime_'
'?!'
'wyn'
'tip'
'sst'
'sod'
'rethink_'
'presses_'
'presentations_'
'orig'
'ofthe'
'noc'
'ngle'
'manch'
'livi'
'lation_'
'hop'
'hartlaub_'
'gett'
'freed_'
'finer_'
'christina_'
'ces'
'waltz_'
'ttes_'
'transforming_'
'tob'
'systematic_'
'saturated_'
'quo_'
'plunge_'
'nom'
'locals_'
'leas'
'joyful_'
'jess_'
'incorporates_'
'enchanted_'
'conductors_'
'coleman_'
'authoritative_'
'76_'
'whisper_'
'voting_'
'vern'
'veni'
'summers_'
'seams_'
'rud'
'rk_'
'recovering_'
'past'
'monroe_'
'mation_'
'joes_'
'engages_'
'disposal_'
'debunk'
'conventions_'
'clare_'
'announce'
'tron_'
'tors_'
'tong'
'thou_'
'thirty'
'test'
'sync'
'subpar_'
'snapped_'
'smooth'
'sizing_'
'seed'
'rof'
'rme'
'restricti'
'pitfalls_'
'outdo'
'nha'
'kr'
'iste'
'gush'
'generator_'
'dsl'
'deno'
'celtic_'
'bodys_'
'ammo_'
'256'
'words'
'wai'
'wah'
'toy'
'tenderness_'
'tai'
'span'
'soaring_'
'sions_'
'rw'
'rew'
'restrictions_'
'ranking_'
'rall'
'protocol_'
'prize'
'outlaw_'
'oe_'
'nau'
'morph'
'mang'
'loath'
'killings_'
'james'
'inst'
'ino_'
'imped'
'hawke'
'dag'
'ath_'
'3s_'
'wick_'
'vid'
'unhealthy_'
'ual'
'transmission_'
'tho_'
'superc'
'stereotype_'
'sophia_'
'sham'
'reluctantly_'
'ofa'
'nter'
'nonh'
'mura'
'moll'
'inlaw_'
'impending_'
'hans'
'franc'
'fare'
'e34_'
'cavi'
'bol'
'archa'
'wellresearched_'
'varies_'
'sammy_'
'regulator'
'reckless_'
'r1'
'profitable_'
'poured_'
'plum'
'mod'
'loser_'
'lenovo_'
'interl'
'hmmm_'
'greats_'
'gn'
'glitter'
'giggle'
'fool'
'correct'
'clin'
'br'
'boomer'
'asap_'
'177'
'x10'
'venice_'
'tay'
'sullivan_'
'stare_'
'spirit'
'sparkling_'
'skies_'
'sanc'
'reunited_'
'restricted_'
'obsolete_'
'messenger_'
'iat'
'houston_'
'fug'
'duel_'
'dime_'
'dec'
'cured_'
'conjure'
'wellb'
'utilizing_'
'usefulness_'
'trac'
'sugar'
'submission_'
'stimulating_'
'sta_'
'sk'
'simmons_'
'scon'
'reich_'
'registered_'
'ped'
'overlap_'
'ordeal_'
'muted_'
'maud'
'liberties_'
'lated_'
'kip'
'fades_'
'a3'
'whats_'
'standby_'
'compromised_'
'blocked_'
'b1'
'aesthetics_'
'\u'
'xf'
'unscr'
'unleashed_'
'stride_'
'rede'
'psycho'
'pork_'
'musicianship_'
'insanely_'
'infinitely_'
'horror'
'homeland_'
'hoffman_'
'frank'
'fir'
'extraordinarily_'
'eighth_'
'dresses_'
'dearly_'
'blai'
'ambiguity_'
'works'
'vine'
'tangible_'
'sword'
'shotgun_'
'royal'
'resent'
'prote'
'navi'
'irritation_'
'gc'
'fect'
'ements_'
'coaching_'
'bowe'
'620'
'wish'
'weis'
'trea'
'tas_'
'surrounds_'
'statue_'
'socialism_'
'simplified_'
'sacd_'
'rewrite_'
'obsessi'
'manh'
'kah'
'impacts_'
'esco'
'drug'
'discontinued_'
'demanded_'
'commanding_'
'choral_'
'booster_'
'athe'
'vi'
'signing_'
'sides'
'scotts_'
'quint'
'pursued_'
'purity_'
'prolific_'
'offense_'
'ntr'
'mich'
'luan_'
'lead'
'jim'
'ivo'
'irk'
'interco'
'imprisoned_'
'iced_'
'guy'
'ela'
'contract'
'coc'
'bung'
'aris'
'appro'
'als'
'yas'
'weed_'
'valentine_'
'tough'
'thcentury_'
'stresses_'
'soli'
'rice'
'reconcile_'
'prophetic_'
'oj'
'nto'
'miraculous_'
'lli_'
'lighte'
'lang_'
'kerry_'
'inheritance_'
'highl'
'henri'
'gavin_'
'entre'
'counseling_'
'comic'
'clara_'
'championship_'
'celebrities_'
'carbs_'
'bunny_'
'bid'
'bern'
'behe'
'ante_'
'ains_'
'9th_'
'wig'
'sund'
'stunt_'
'rework'
'pose'
'politician_'
'person'
'overflow'
'nights'
'maze_'
'knocks_'
'inquiry_'
'fact'
'f1'
'ena'
'e1'
'dinosaurs_'
'dda'
'daunting_'
'contacting_'
'como_'
'comeback_'
'choreography_'
'charted_'
'billboard_'
'arrest_'
'verge_'
'triumphs_'
'threes'
'stumble_'
'splash_'
'sill'
'sideways_'
's9'
'rell'
'permissions_'
'pasts_'
'oph'
'operas_'
'omega3_'
'nikki_'
'lop'
'kus'
'kim'
'insisted_'
'halfb'
'cole'
'choi'
'480'
'vau'
'unrelated_'
'successor_'
'penalty_'
'howe'
'ground'
'foster'
'factions_'
'earning_'
'dr'
'contend'
'brazil_'
'bounty_'
'blackb'
'benny_'
'b2'
'willis_'
'wherein_'
'topo'
'shoot'
'seam'
'pipes_'
'mmo'
'mild'
'midrange_'
'maris'
'maneuver_'
'landl'
'humbl'
'heed_'
'gamble_'
'fearless_'
'fae_'
'experimenting_'
'disin'
'dairy_'
'cred'
'carri'
'buff'
'berna'
'asy'
'yay_'
'yama'
'wake'
'uptempo_'
'universities_'
'undo'
'unbearable_'
'tus'
'tep'
'sway_'
'surge'
'spott'
'settling_'
'scans_'
'pav'
'opin'
'mars'
'kathy_'
'ient'
'howl'
'hom'
'forge'
'enf'
'dumped_'
'doses_'
'disasters_'
'degrade'
'conv'
'ches'
'cash'
'blazing_'
'ava_'
'91_'
'throttle_'
'shifter_'
'roa'
'ramp_'
'plead'
'osc'
'montgomery_'
'millers_'
'louis'
'lieutenant_'
'landscapes_'
'khan_'
'hail_'
'gob'
'franks_'
'dave'
'cycling_'
'clicked_'
'8th_'
'1947_'
', .'
'virgin'
'vignettes_'
'tee_'
'spoiling_'
'spec_'
'slop'
'restraint_'
'raft'
'punk'
'phy'
'nese_'
'keyboard'
'kenneth_'
'karl'
'framing_'
'formulas_'
'flavored_'
'feeds_'
'exercising_'
'dx_'
'doubt'
'desir'
'deg'
'chops_'
'canyon_'
'bear'
'attic_'
'archive_'
'anticipating_'
'agony_'
'ach_'
'wick'
'toby_'
'tempting_'
'tact'
'steering_'
'slap'
'seventies_'
'sbe'
'sacrificed_'
'pog'
'phil'
'oro'
'nourish'
'lega'
'landmark_'
'lance_'
'incorporating_'
'garner_'
'fours'
'fetch'
'eliminating_'
'efficiently_'
'contemporaries_'
'confirmation_'
'clump'
'cheese'
'chambers_'
'boe'
'awarded_'
'awa'
'avenue_'
'vice'
'tasted_'
'sell'
'reass'
'posit'
'peppers_'
'park'
'nga'
'michel'
'lens'
'intends_'
'gge'
'frightened_'
'capo'
'bys_'
'adversity_'
'ado_'
'academics_'
'? '
'720p_'
'.: _'
'tyle_'
'suburb'
'skimp'
'selfde'
'rial_'
'resemble_'
'promotional_'
'profit'
'poke_'
'plunge'
'noni'
'lurking_'
'eur'
'endi'
'calli'
'braun_'
'bloods'
'blamed_'
'bha'
'bark_'
'tougher_'
'seduc'
'ruth'
'rhyme_'
'reci'
'gill'
'europeans_'
'encyclopedia_'
'economical_'
'contest'
'coloss'
'clarke_'
'charisma_'
'chara'
'backyard_'
'alr'
'aching_'
'1950_'
'zero'
'week'
'stee'
'shakes_'
'sali'
'redo'
'rebuild_'
'reb'
'oversight_'
'mtv_'
'mbo'
'kub'
'jams_'
'disregard_'
'disclose_'
'coordinate'
'burnt_'
'bi_'
'apl'
'abc_'
'zipp'
'wonderland_'
'wagon_'
'toi'
'superiority_'
'schu'
'ruling_'
'rma_'
'quilt'
'nutt'
'nobel_'
'nash_'
'mano'
'listings_'
'iver'
'ik'
'georges_'
'fia'
'dt_'
'dise'
'bing'
'adj'
', ..._'
'u2_'
'tucked_'
'thereof_'
'staples_'
'specialty_'
'speci'
'sley_'
'skillful_'
'sey'
'sall'
'row'
'rerelease_'
'qa'
'pee'
'otte'
'nak'
'mina'
'merge'
'mara_'
'hn'
'grip'
'escalate'
'eria'
'energize'
'enco'
'earnest_'
'dungeon_'
'dlink_'
'cuc'
'beck'
'alpha'
'yogurt_'
'uninteresting_'
'trot'
'tournament_'
'sookie_'
'snarky_'
'sermon_'
'regulations_'
'question'
'quee'
'quartets_'
'puri'
'perk'
'paleo_'
'orbit_'
'ora_'
'miner'
'marg'
'lling_'
'graphically_'
'graph_'
'grandchildren_'
'google'
'gentlemen_'
'fad'
'facets_'
'eck_'
'decrease_'
'costar'
'continent_'
'coats_'
'charm'
'cardi'
'calvin_'
'attaching_'
'airb'
'ader'
'161'
'uph'
'string'
'rough'
'pioneers_'
'overs_'
'mp3s_'
'lim'
'haus'
'gulf_'
'enigma_'
'duct_'
'dora'
'chunks_'
'chat'
'channel'
'beep_'
'arb'
'afflict'
'1948_'
'wella'
'uck'
'sprinkle'
'spicy_'
'scra'
'melted_'
'matt'
'mane'
'jaws_'
'insi'
'hon_'
'corro'
'corp'
'confined_'
'brink_'
'berl'
'athen'
'!'
'young'
'stow'
'squat'
'slr_'
'sigh'
'schm'
'riot_'
'mpo'
'mines_'
'itch'
'ingra'
'hypocrisy_'
'gne'
'fue'
'fitzgerald_'
'eto'
'elle'
'dwell_'
'disservice_'
'cano'
'alleg'
'2x'
'zz_'
'yummy_'
'wendy_'
'vea'
'urgent_'
'univers'
'starbucks_'
'spoo'
'sn'
'sbo'
'rr_'
'rpgs_'
'resp'
'rc_'
'raj'
'overt_'
'obt'
'nur'
'niece_'
'jules_'
'ishly_'
'insti'
'horrid_'
'guiding_'
'grooves_'
'gly_'
'exhaustive_'
'craft'
'claude_'
'billions_'
'ato'
'asce'
'amelia_'
'4x'
'125_'
'vs'
'visi'
'syr'
'suppl'
'sinking_'
'sincerity_'
'shaping_'
'organizing_'
'oot'
'lena_'
'julie'
'irs_'
'ety'
'counsel_'
'conquest_'
'bonuses_'
'arian'
'antagonist_'
'advis'
'xs'
'stray'
'sleeps_'
'refusal_'
'recycled_'
'qt'
'overrated_'
'orat'
'neat'
'mst'
'meh_'
'legislat'
'howto_'
'halls_'
'fes'
'damp_'
'crib_'
'creen_'
'bef'
'bah'
'availability_'
'amal'
'zep'
'zac'
'ype_'
'sve'
'stic'
'risky_'
'removes_'
'odi'
'obstacle_'
'mana'
'knot_'
'knitting_'
'imp'
'downhill_'
'damn'
'dale'
'catalyst_'
'aura_'
'terminat'
'tera'
'shirts_'
'reformation_'
'pped_'
'pine_'
'persecution_'
'ose'
'milla'
'mechanisms_'
'ided_'
'highp'
'hams_'
'fier'
'feisty_'
'exu'
'embellish'
'discon'
'diagnosed_'
'deus_'
'confessions_'
'clan'
'chip'
'cameos_'
'anti_'
'annoy_'
'unl'
'uel'
'tenn'
'tah'
'synthesize'
'schul'
'rivalry_'
'mythical_'
'modifications_'
'modeling_'
'lter'
'loud'
'labs_'
'knit_'
'jam'
'introductions_'
'hobb'
'hipp'
'fearful_'
'duff'
'dreaded_'
'downloadable_'
'distort'
'dent'
'dazzling_'
'dahl'
'crab'
'bust'
'bsides_'
'asserts_'
'aso'
'alec_'
'x4'
'withstand_'
'wink'
'uz'
'strained_'
'stas'
'schl'
'refrigerator_'
'premier_'
'pill'
'pertinent_'
'oft'
'minimalist_'
'lower'
'junkies_'
'jol'
'inadvertently_'
'identifies_'
'hoff'
'hild'
'harri'
'growl'
'girlfriends_'
'ghi'
'gent'
'deceit_'
'deal'
'customization_'
'core'
'brut'
'aul'
'wool_'
'visa'
'trun'
'techno'
'soloists_'
'shes_'
'raine'
'puppet_'
'parable_'
'outsider_'
'nott'
'lw'
'gwen_'
'goodreads_'
'gger_'
'fold'
'fis'
'fica'
'echo'
'cuss'
'basi'
'aph'
'ambitions_'
'vie'
'unfa'
'undeniably_'
'ubi'
'thatll_'
'tau'
'salmon_'
'rejects_'
'reinforced_'
'redeemed_'
'rak'
'perseverance_'
'ominous_'
'nutri'
'moh'
'millennium_'
'mating_'
'mak'
'louisiana_'
'lane'
'investigative_'
'intent'
'inger_'
'gamb'
'design'
'consoles_'
'condemned_'
'compilations_'
'chest'
'blogging_'
'banjo_'
'babe_'
'acy_'
'8gb_'
'83_'
'1500_'
' .._'
'whimsical_'
'uncl'
'symphonic_'
'sponge_'
'spelled_'
'sacrament'
'rami'
'proposition_'
'pressures_'
'nish'
'mr'
'ites_'
'insta'
'hing'
'hey'
'exceedingly_'
'bestseller_'
'aqui'
'::'
'stitching_'
'sant'
'roast_'
'racy_'
'predictions_'
'pita'
'memorial_'
'mcca'
'lth'
'liar_'
'forward'
'fdr_'
'diets_'
'dialogues_'
'determining_'
'cox_'
'click'
'clement'
'city'
'campus_'
'attest_'
'apa'
'addicting_'
'86_'
'zig'
'warped_'
'sober_'
'shy'
'shack_'
'rse'
'program'
'plain'
'menacing_'
'machinations_'
'laser'
'invi'
'incarnation_'
'ick'
'hulu_'
'hike'
'eu_'
'diminish_'
'cola'
'clocks_'
'bruckner_'
'belo'
'barra'
'zb'
'whirl'
'ual_'
'twain_'
'tonal_'
'swat'
'sociopath'
'rigorous_'
'r3'
'prost'
'patent'
'orn_'
'nude_'
'nica'
'modernday_'
'mas'
'lui'
'ludicrous_'
'letter'
'lam'
'hic'
'gow'
'glen_'
'fading_'
'essness_'
'eps_'
'coincide'
'butcher_'
'brushed_'
'anta'
'amp'
'zippers_'
'xl'
'wilsons_'
'uv'
'unr'
'uen'
'toh'
'thinker_'
'rigg'
'reconnect_'
'r2'
'princes_'
'pliers_'
'onco'
'manu'
'kay'
'investments_'
'garb'
'fitted_'
'erf'
'eran'
'enc'
'dj'
'dg_'
'deepen'
'coli'
'chronology_'
'brisk_'
'amused_'
'ake'
'151'
'withdraw'
'volt_'
'stabilize'
'sniper_'
'scam_'
'sail_'
'retr'
'realise_'
'oppression_'
'onkyo_'
'notices_'
'nfl_'
'nailed_'
'hend'
'hardw'
'goldstein_'
'extending_'
'edge'
'diego_'
'dict'
'cookbooks_'
'commen'
'calla'
'baz'
'arriving_'
'andre_'
'analytical_'
'amar'
'willow_'
'stad'
'sailor_'
'reg'
'record'
'quis'
'prostitute_'
'pron'
'prod'
'prete'
'nov'
'nota'
'market'
'lovingly_'
'loren'
'iring_'
'infantry_'
'gian'
'friend'
'feature'
'espe'
'crafting_'
'calibration_'
'berk'
'writer'
'vers'
'veronica_'
'vera_'
'toned_'
'tapestry_'
'tac'
'steak_'
'sane_'
'routes_'
'rity_'
'ripoff_'
'riches_'
'remixes_'
'rash_'
'psychologist_'
'pathos_'
'observing_'
'mos_'
'merican_'
'joker_'
'interlude_'
'ingl'
'hist'
'help'
'gram'
'gle_'
'firstperson_'
'fable_'
'enge'
'emba'
'dew'
'deemed_'
'crud'
'cron'
'common'
'clutter_'
'bret'
'bezel_'
'allergies_'
'ail_'
'0s'
'zt'
'zers_'
'webmaster_'
'wail'
'succ'
'spotted_'
'reviewi_'
'radiation_'
'quar'
'ptsd_'
'prelude_'
'phi'
'param'
'mysti'
'mash_'
'magers_'
'mae_'
'lly'
'lith'
'last'
'exhaust_'
'coma'
'wildlife_'
'vog'
'violate'
'umber'
'trif'
'transferring_'
'tled_'
'subdued_'
'source'
'savi'
'reds_'
'realworld_'
'rams'
'qualify_'
'nni'
'matri'
'lucid_'
'lossless_'
'joyfully_'
'jerk'
'hh'
'heroism_'
'fuzz'
'fueled_'
'figur'
'extract'
'elevator_'
'constructi'
'bouncing_'
'beds_'
'base'
'wis'
'unti'
'saint'
'rebels_'
'paradox_'
'palestinian_'
'nuggets_'
'moscow_'
'loosen'
'living'
'jude_'
'ideological_'
'holi'
'food'
'confe'
'col_'
'cathar'
'cag'
'buzz'
'bake_'
'aptly_'
'whipple_'
'volunteer_'
'tease'
'stylistic_'
'solitary_'
'shiver'
'send'
'pict'
'multic'
'manifest_'
'kata'
'jul'
'ict'
'ibl'
'highland'
'helm_'
'hayes_'
'fates_'
'fantastical_'
'extr'
'equate'
'ebo'
'donne'
'demonic_'
'das'
'courtroom_'
'contradictory_'
'chir'
'brow_'
'attracti'
'1951_'
'yal'
'truthful_'
'treadmill_'
'telep'
'silicon_'
'scrib'
'reinstall_'
'predat'
'pati'
'oxi'
'optimize'
'nik'
'magnitude_'
'lled_'
'jell'
'incomp'
'guardians_'
'gly'
'execute_'
'enu'
'dynasty_'
'disen'
'cru'
'cbs_'
'cave'
'betray'
'ario'
'ament'
'admiral_'
'abe'
'178'
'wilder_'
'trud'
'trucks_'
'transcend_'
'sweat'
'runners_'
'roland_'
'rey'
'ract'
'rach'
'prohibit'
'onist_'
'melo'
'lowl'
'informs_'
'demonstration_'
'conveying_'
'civilizations_'
'carroll_'
'caribbean_'
'bummer_'
'brooke_'
'bonnie_'
'augment'
'arises_'
'adult'
'adept_'
'why'
'unh'
'ssed_'
'slack_'
'rowe'
'rene'
'onable_'
'ional'
'ingc'
'ify_'
'identities_'
'holm'
'goodies_'
'disgusted_'
'counterpart_'
'condens'
'bibles_'
'ave'
'abu'
'zh'
'wh'
'trig'
'supers'
'sherman_'
'sandra_'
'runaway_'
'qc'
'preco'
'pom'
'peters'
'persist'
'ound'
'nation'
'muse_'
'maximize_'
'hike_'
'harrys_'
'grace'
'gar_'
'fou'
'forthcoming_'
'farfetched_'
'eyel'
'exam'
'evangeli'
'distilled_'
'dear'
'cues_'
'convicted_'
'borg'
'boh'
'arte'
'argu'
'allie_'
'920'
'270'
'wirelessly_'
'vic_'
'unnatural_'
'transf'
'toothbrush_'
'solves_'
'snu'
'sew'
'researcher_'
'overhead_'
'onism_'
'metaphysical_'
'meld'
'margins_'
'lon'
'kind'
'infrastructure_'
'ical'
'hiss_'
'ez_'
'emphasized_'
'dist'
'disguised_'
'cheap'
'alist'
'1936_'
'112_'
'....'
'wellmade_'
'weaken'
'tics_'
'thugs_'
'select'
'reacher_'
'rar'
'portfolio_'
'popup_'
'occult_'
'meticulous_'
'lives'
'literate_'
'kodak_'
'kf'
'homeo'
'grants_'
'gic'
'fie'
'evils_'
'evan'
'edits_'
'depot_'
'daf'
'crimson_'
'chill'
'aided_'
'260'
'wend'
'unst'
'uma'
'truman_'
'total'
'tormented_'
'stalker_'
'rounding_'
'rians_'
'resolutions_'
'redesign'
'punished_'
'planted_'
'odd'
'nareau_'
'mph_'
'kinect_'
'kidd'
'inherited_'
'incompetent_'
'ills_'
'hostage_'
'hbo_'
'endurance_'
'distinguish'
'compar'
'casualties_'
'bout'
'19'
'141'
'vag'
'thwart'
'ston_'
'populated_'
'offices_'
'melt'
'mail'
'interacting_'
'hospitals_'
'higher'
'gula'
'dispense'
'culprit_'
'conne'
'composite_'
'barre'
'axe'
'anker_'
'1937_'
'149'
'wits_'
'vc'
'tut'
'tumble'
'tine'
'tcha'
'tach'
'sth'
'sizzling_'
'reto'
'relied_'
'quarr'
'preset_'
'omb'
'montana_'
'leverage_'
'lent_'
'intermi'
'impacted_'
'hunted_'
'graphy_'
'forefront_'
'flashy_'
'esoteric_'
'dipp'
'corresponding_'
'butcher'
'anu'
'ache_'
'unused_'
'trance_'
'sniff'
'sman_'
'shifted_'
'sennheiser_'
'rick'
'reliably_'
'ram'
'plun'
'olia'
'nts'
'metallica_'
'infection_'
'inar'
'exchanges_'
'cta'
'cowrit'
'cot'
'comparative_'
'citing_'
'cite_'
'cisco_'
'cable'
'bluesy_'
'avatar_'
'assortment_'
'247_'
'whichever_'
'votes_'
'twee'
'trace'
'tall'
'succession_'
'shaman'
'shaky_'
'repro'
'nys_'
'ngt'
'nder'
'larg'
'jose'
'isp'
'inv'
'eness_'
'darkly_'
'comfy_'
'cancelled_'
'brady_'
'billed_'
'bargain'
'ardi'
'antip'
'!!'
'vida'
'validity_'
'ulan'
'twos'
'thanksgiving_'
'sheath_'
'sales'
'roman'
'primal_'
'ogen'
'nsu'
'nail'
'merchant_'
'lel'
'justin'
'juicy_'
'jones'
'hud'
'hiring_'
'glut'
'fourteen_'
'colleague_'
'berr'
'ata_'
'arge'
'alter'
'yamaha_'
'wha'
'uneasy_'
'tle'
'snee'
'rry_'
'retrospective_'
'retro'
'reen'
'nib'
'nerd_'
'malfunction'
'lux'
'johann'
'haul_'
'gang'
'ensi'
'derail'
'consultant_'
'cine'
'accelerate'
'welldeveloped_'
'tub'
'trait_'
'tia_'
'thermal_'
'suff'
'sharp'
'ruff'
'refreshingly_'
'porch_'
'pleas'
'oracle_'
'ocu'
'nicola'
'newman_'
'markers_'
'marker_'
'marital_'
'magician_'
'loy'
'gore'
'gage_'
'fey_'
'famed_'
'eci'
'dongle_'
'circa_'
'chew'
'cain_'
'bitterness_'
'ars'
'zach_'
'vel_'
'thec'
'tere'
'tease_'
'suzanne_'
'soc'
'size'
'resonance_'
'reins'
'rane'
'rampant_'
'prof_'
'pipe'
'pip'
'philosophies_'
'paradi'
'noth'
'nonf'
'natives_'
'lumin'
'lights'
'laz'
'inner'
'garrett_'
'deri'
'darling_'
'cos_'
'cherished_'
'bruise'
'beverly_'
'backst'
'304'
'xes_'
'veil_'
'tree'
'til'
'steph_'
'sigma_'
'sergeant_'
'roommate_'
'reconciliation_'
'pyramid_'
'outsiders_'
'holl'
'heal'
'hatche'
'grains_'
'gigantic_'
'gasp'
'fullest_'
'exploit_'
'exit'
'conditioning_'
'chol'
'chen'
'bursts_'
'borderline_'
'antig'
'accus'
'xm'
'wtf_'
'tina_'
'structural_'
'square'
'slit'
'sci_'
'sawyer_'
'rus'
'rotten_'
'rockin_'
'requests_'
'phant'
'otto_'
'nozzle_'
'mistr'
'mello'
'litera'
'iot'
'hound_'
'grin'
'grades_'
'freezes_'
'freddie_'
'formal'
'fein'
'exceed_'
'eman'
'drowning_'
'discern_'
'dian'
'derivative_'
'crawford_'
'consensus_'
'casually_'
'agatha_'
'varia'
'validate'
'unravel'
'uninspired_'
'understandably_'
'textured_'
'subjected_'
'stunts_'
'sno'
'ruler_'
'regulate'
'refute'
'recreate_'
'python_'
'pier'
'pedals_'
'jenn'
'ison_'
'inh'
'hurt'
'grieving_'
'falter'
'ege'
'dominance_'
'disappearing_'
'culp'
'confronts_'
'bras'
'1946_'
'vibes_'
'stealth_'
'snappy_'
'simpson_'
'shave'
'rman_'
'rex_'
'remorse_'
'rans'
'pitch'
'onea'
'mystery'
'molded_'
'mobil'
'jen_'
'gettysburg_'
'dica'
'constitutional_'
'clearance_'
'brod'
'amid_'
'acre'
'978'
'tul'
'submitted_'
'submarine_'
'soaked_'
'saudi_'
'robbery_'
'reme'
'punctuation_'
'proposes_'
'oring_'
'oce'
'obamas_'
'luke'
'gym'
'gee'
'eak'
'dummies_'
'demos_'
'delayed_'
'crook'
'court'
'clarinet_'
'characterized_'
'champ_'
'bam_'
'athletic_'
'actiona'
'4gb_'
'tron'
'tightened_'
'sway'
'subtract'
'sprint_'
'shear'
'ses'
'romance'
'quip'
'playlist_'
'phere'
'mason'
'levin'
'legally_'
'kennedys_'
'jenna_'
'intern'
'hine'
'gus_'
'etr'
'enclosed_'
'eclipse_'
'ditch_'
'atti'
'wilde_'
'tial_'
'thereafter_'
'stitches_'
'sleuth'
'sk_'
'shepherd_'
'rha'
'raph'
'phillip_'
'perl'
'pano'
'oad'
'nap_'
'metal'
'indifferent_'
'hut'
'gast'
'gara'
'flipped_'
'ewa'
'evil'
'entrepreneurs_'
'ede'
'easi'
'dispar'
'cooper'
'compli'
'chain'
'buddha_'
'audrey_'
'timed_'
'tho'
'sexi'
'seri'
'scrub_'
'rosen'
'puzzling_'
'practi'
'petro'
'penta'
'ooma_'
'numbered_'
'novellas_'
'marty_'
'manipulat'
'lob'
'liners_'
'lincolns_'
'kv'
'heh'
'fio'
'exhilarating_'
'crap'
'cornel'
'cont'
'chuckle_'
'billi'
'assisted_'
'900'
'3t'
'zane_'
'xy_'
'xt_'
'wer_'
'vt'
'tweaks_'
'tune'
'tig'
'streams_'
'rwa'
'routinely_'
'ripper_'
'ridden_'
'rf_'
'pocket'
'nsa'
'ngu'
'ney'
'masks_'
'marche'
'lids_'
'lever'
'lamo'
'inducing_'
'hne'
'habit'
'embo'
'domination_'
'dodg'
'discography_'
'desk'
'depict_'
'decorat'
'concu'
'colour'
'blizzard_'
'bashing_'
'approve_'
'aint'
'2x_'
'1952_'
'130'
' !!!!'
'undermine'
'tiles_'
'skimming_'
'quil'
'populations_'
'overst'
'mccartney_'
'jade_'
'interst'
'incorrectly_'
'grid'
'grati'
'drained_'
'dis_'
'cter'
'corralbwesterns_'
'co2_'
'calculus_'
'bomb'
'bitch_'
'baroque_'
'alb'
'agr'
'acquainted_'
'3m'
'waver'
'vent'
'thon'
'poor'
'pigeon'
'mod_'
'mia'
'marginal_'
'maid'
'lull'
'itt_'
'inti'
'handicap'
'hacker'
'glu'
'empathize_'
'dali'
'cunning_'
'cting_'
'ais'
'vet'
'venue_'
'unfo'
'uncomp'
'truthfully_'
'tomatoes_'
'stud'
'senate_'
're'
'plow'
'oct_'
'nte_'
'nimh_'
'longl'
'knee'
'int_'
'innate_'
'holli'
'greene_'
'fully'
'disturb'
'deem'
'bruno_'
'atlanta_'
'anglo'
'amus'
'ams_'
'acne_'
'acclaimed_'
'zoo'
'wow'
'winding_'
'vest_'
'usability_'
'unfolded_'
'tweet'
'tug_'
'tissues_'
'selves_'
'reversed_'
'repair'
'reliance_'
'pitt_'
'pert'
'paris'
'pana'
'oss_'
'nym'
'modification_'
'misunderstandings_'
'lyd'
'itl'
'itions_'
'iphones_'
'initiative_'
'hone_'
'hierarchy_'
'hendrix_'
'hage'
'funnier_'
'fats_'
'erw'
'ened_'
'embark'
'eagles_'
'daytoday_'
'crooked_'
'calle'
'cakes_'
'cafe'
'1938_'
'ving'
'vick'
'unearth'
'underestimate'
'ully_'
'therein_'
'superfluous_'
'su'
'preferably_'
'pawn_'
'motions_'
'mec'
'mayo'
'lal'
'junk'
'iveness_'
'iraqi_'
'inch'
'iga'
'herme'
'hammer'
'equip'
'eet'
'days'
'daw'
'dang_'
'cog'
'classified_'
'charge'
'cargo_'
'capsules_'
'cane_'
'blower_'
'beforehand_'
'arcs_'
'amen_'
'adagio_'
'yell'
'unma'
'twin'
'triumphant_'
'thermometer_'
'tep_'
'scherzo_'
'rightfully_'
'rep'
'quai'
'prompted_'
'postmodern_'
'polemic'
'pera'
'pate'
'parent'
'orn'
'omin'
'nsive'
'nothing'
'ngton_'
'musicals_'
'metallic_'
'jess'
'hugo_'
'greenw'
'founders_'
'fireb'
'filtered_'
'edd'
'dispose'
'costing_'
'cosmo'
'cars'
'calculator_'
'buy'
'behavioral_'
'bark'
'arma'
'alcoholism_'
'welld'
'webs'
'vault_'
'unif'
'uan'
'title'
'tempe'
'stead'
'rsh'
'pinnacle_'
'partition_'
'occupy_'
'mx'
'moun'
'morse_'
'method'
'mccoy_'
'loaf_'
'lingly_'
'jonah_'
'ington_'
'improbable_'
'homo'
'harts'
'gloss'
'generously_'
'fter_'
'forge_'
'footsteps_'
'fianceacute_'
'fart'
'ez'
'evel'
'ero_'
'eps'
'duplic'
'disgust_'
'deter_'
'destr'
'chak'
'brackets_'
'boul'
'battery'
'uu'
'tread'
'theo'
'smear'
'sixty_'
'rto'
'resemblance_'
'puff'
'pry'
'projecti'
'previ'
'posters_'
'pixels_'
'persuasion_'
'oddit'
'mino'
'michigan_'
'maur'
'lux_'
'insignificant_'
'illus'
'ike'
'heavi'
'gesture_'
'fortunes_'
'ence'
'dug_'
'darken'
'crafts_'
'cottage_'
'competitor_'
'cambridge_'
'bry'
'breakup_'
'brac'
'140_'
'tyranny_'
'toaster_'
'these'
'sono'
'rita_'
'rgi'
'rag_'
'manc'
'horde'
'hoods_'
'goat_'
'feelgood_'
'evers'
'entities_'
'ein_'
'eds'
'clipper'
'burne'
'assertion_'
'apost'
'afterthought_'
'...?'
'... '
'witnessing_'
'willingly_'
'unwi'
'tw'
'tag'
'sucking_'
'shrink_'
'risk'
'retailer_'
'pest'
'offend_'
'kie_'
'iona'
'implementing_'
'hein'
'hash'
'harass'
'fil'
'farr'
'farm'
'enticing_'
'endanger'
'dre_'
'contempt_'
'carmen_'
'breezy_'
'belts_'
'appe'
'wiser_'
'wage_'
'ventur'
'usion_'
'uncut_'
'trek'
'subt'
'stal'
'rmi'
'rebu'
'rama'
'prowess_'
'polari'
'pakistan_'
'nong'
'mouths_'
'motor'
'lf_'
'kristen_'
'kara'
'iously_'
'hodge'
'harmonica_'
'hane'
'gather'
'deliciously_'
'deceptive_'
'data'
'dangling_'
'dall'
'crane_'
'communi'
'churchs_'
'casse'
'brawl'
'arabs_'
'alism_'
'10th_'
'yet'
'ww2_'
'workbook_'
'viewfinder_'
'upward_'
'transcends_'
'tackles_'
'sylvia_'
'starving_'
'sheds_'
'secret'
'roche'
'pitt'
'lydia_'
'irving_'
'import'
'icu'
'hima'
'freddy_'
'foresee'
'flavor'
'eric'
'emulat'
'elena_'
'dye_'
'dso'
'declare_'
'darr'
'converge'
'cluster'
'clearing_'
'carve'
'button'
'blink'
'backpack'
'workshop_'
'wellcrafted_'
'wage'
'venus_'
'vanity_'
'tilt'
'thai_'
'sterling_'
'selfe'
'roo'
'rif'
'portal_'
'pbs_'
'oint_'
'nad'
'medley_'
'lya'
'leather'
'kirk'
'kens'
'inbetween_'
'exceeds_'
'cattle_'
'bounds_'
'boasts_'
'absorb'
'yri'
'vey'
'tropical_'
'trim'
'triggers_'
'tolerable_'
'staff'
'sappy_'
'reprise_'
'remark_'
'qu'
'pixel_'
'outward_'
'ott_'
'offline_'
'mudd'
'moores_'
'mapping_'
'jew'
'grade'
'experi'
'ewe'
'curves_'
'cull'
'courte'
'chr'
'cant'
'avr'
'analyzing_'
'algorithm'
'5x'
'yourselves_'
'yk'
'wimp'
'universally_'
'shap'
'react'
'public'
'proofread'
'princip'
'piss'
'overco'
'outfits_'
'moment'
'mck'
'lumi'
'lom'
'jr'
'indu'
'imposed_'
'implausible_'
'fid'
'fed'
'duh_'
'dissi'
'disability_'
'dinosaur_'
'dessert_'
'defeats_'
'cuisinart_'
'contrasting_'
'categorize'
'bigg'
'230_'
'wrestler'
'wizards_'
'tragically_'
'stutter'
'spans_'
'sinners_'
'prese'
'please'
'pan'
'openings_'
'oni_'
'mt_'
'mole'
'marvin_'
'len_'
'iss_'
'inflation_'
'harsh'
'hann'
'flights_'
'eau_'
'crat'
'count'
'cale_'
'broker'
'bind_'
'backbone_'
'antisemitism_'
'010'
'zuc'
'yester'
'twof'
'stoo'
'stimulat'
'spr'
'rupt'
'regulation_'
'ramp'
'rade'
'prope'
'pl'
'persuasive_'
'paci'
'ott'
'oard_'
'messia'
'mary'
'main'
'lah'
'juan_'
'itan'
'irres'
'investor_'
'illustrating_'
'fragrance_'
'energ'
'digi'
'dering_'
'contributors_'
'completist'
'cmon_'
'cle_'
'center'
'agu'
'2c'
' !!_'
'transformers_'
'tg'
'tablet'
'superstar_'
'solace_'
'shipment_'
'russ'
'robber'
'reconstruct'
'pso'
'pane'
'overshadowed_'
'oak_'
'most'
'madden_'
'mab'
'latin'
'lass'
'katrina_'
'kai_'
'holland_'
'gris'
'finali'
'eve'
'eter_'
'drastic_'
'uy'
'toast'
'tempered_'
'snakes_'
'sko'
'roi'
'rj'
'overweight_'
'onedimensional_'
'oman'
'odo'
'ngi'
'mick'
'isabel_'
'irr'
'hig'
'hermi'
'heads'
'hardened_'
'goss'
'evie_'
'embraces_'
'colleges_'
'centre_'
'bennet'
'backups_'
'auction_'
'a8217_'
'textbooks_'
'temps_'
'solomon_'
'sling_'
'shay'
'seda'
'scout_'
'rosemary_'
'redo_'
'recounting_'
'quea'
'quart'
'pony_'
'pino'
'owl_'
'oso'
'operational_'
'oops_'
'motif_'
'monarch'
'meticulously_'
'luggage_'
'lue'
'lifts_'
'knight'
'jos'
'instructional_'
'inherently_'
'immersion_'
'herald'
'gori'
'fp'
'desserts_'
'cors'
'confi'
'carey_'
'bn'
'autofocus_'
'atho'
'arsenal_'
'ania'
'advent_'
'4m'
'windshield_'
'walt'
'tto'
'stat'
'spielberg_'
'somber_'
'selfesteem_'
'screenwriter_'
'sc_'
'ryder_'
'ronnie_'
'rockers_'
'resentment_'
'representatives_'
'promot'
'polo'
'onw'
'ona_'
'mog'
'medications_'
'jad'
'ides_'
'fee'
'excellently_'
'escen'
'eras'
'employs_'
'ease'
'delu'
'd1'
'boarding_'
'ative'
'apologies_'
'144'
'yor'
'subse'
'sporting_'
'spontaneous_'
'snes'
'sibling_'
'schn'
'renowned_'
'poppy_'
'pint'
'piece'
'pard'
'pag'
'overa'
'outw'
'operator_'
'oney'
'obedience_'
'newborn_'
'moto_'
'laws'
'ingr'
'infused_'
'hex_'
'graces_'
'gate'
'ette'
'enne_'
'distinctly_'
'correspondence_'
'contemplate_'
'commanders_'
'cion'
'caus'
'cartoon'
'basin'
'bara'
'astro'
'32gb_'
'weighed_'
'ump'
'tourists_'
'touring_'
'tightening_'
'techno_'
'sola'
'rolli'
'poul'
'phony_'
'pg13_'
'persuade_'
'ored_'
'ncia'
'misuse'
'lois_'
'leah_'
'kitt'
'kho'
'insider_'
'inhabit_'
'indulge_'
'inat'
'imme'
'ibly_'
'henrys_'
'grate'
'flags_'
'disparate_'
'dana_'
'damon_'
'commu'
'c3'
'accord'
'118'
'106'
'tet'
'technician_'
'ssion_'
'softly_'
'scoop'
'scalp_'
'sang'
'saddle_'
'respect'
'prede'
'peterson_'
'orlando_'
'ograph'
'ogat'
'nomination_'
'janes_'
'ida_'
'hw'
'happen'
'hacking_'
'exemplary_'
'docs_'
'disrupt'
'coup_'
'bread'
'boob'
'bind'
'beethovens_'
'amou'
'4t'
'!!!'
'xis'
'voyager_'
'ufo_'
'torment_'
'swin'
'riz'
'reco'
'promotes_'
'platforms_'
'pharmac'
'pedi'
'ouch_'
'orchestration_'
'offi'
'natural'
'mus_'
'misplaced_'
'mechanic_'
'mean'
'lexi'
'karma_'
'ivan_'
'invoke'
'intimidating_'
'install'
'ily'
'hometown_'
'faith'
'eyeopening_'
'engine'
'elton_'
'cement_'
'cald'
'bile'
'bello'
'bandwidth_'
'balle'
'athlete_'
'artful'
'vici'
'unfai'
'ulsi'
'turbo_'
'sely_'
'prophets_'
'perpetrator'
'nolan_'
'nche'
'nai'
'nac'
'modern'
'lish'
'innovations_'
'grind'
'grin_'
'fruit'
'frantic_'
'feather_'
'expansive_'
'excite'
'edm'
'dpi_'
'clown_'
'chief'
'calculated_'
'burke_'
'bunn'
'bash_'
'animations_'
'aggression_'
'abba'
'4p'
'2014'
'visualize_'
'tini'
'subsidi'
'shoddy_'
'serge'
'seren'
'qa_'
'puritan'
'plains_'
'philipp'
'oily_'
'ntil'
'km'
'inthe_'
'imina'
'ila'
'hdx_'
'flopp'
'favour_'
'faux_'
'epist'
'ente'
'consult'
'condo'
'climbe'
'architect_'
'210'
'urine_'
'unp'
'tari'
't2'
'syria'
'sunda'
'strait'
'riche'
'reproduc'
'relive_'
'pn'
'peripheral_'
'peeling_'
'ngs'
'multiv'
'marking_'
'longs_'
'ition_'
'impulse_'
'hua'
'heb'
'hayw'
'graceful_'
'favors_'
'farming_'
'fake'
'essa'
'elis'
'edw'
'detected_'
'despise_'
'crown'
'correspond'
'cooke'
'colo'
'cio'
'cco'
'bloom'
'bethany_'
'bele'
'autistic_'
'arctic_'
'andr'
'worksh'
'unins'
'uly'
'transi'
'topper_'
'steamer_'
'states'
'stall'
'sensibility_'
'restoring_'
'positioning_'
'nero_'
'neglig'
'muddled_'
'mo'
'mal_'
'judas_'
'jace_'
'iving'
'hormones_'
'glan'
'gins'
'gand'
'fest'
'edt'
'delights_'
'condensed_'
'conceptual_'
'commended_'
'coaches_'
'chopin_'
'choo'
'aka'
'airplay_'
'admirably_'
'vity_'
'unequ'
'tad'
'sickness_'
'shells_'
'sack'
'rhi'
'ques_'
'preston_'
'outc'
'newbie_'
'maa'
'lain'
'kee'
'judith_'
'insistence_'
'foreshadowing_'
'eous_'
'detracts_'
'cuz_'
'consisting_'
'cone_'
'concoct'
'cardinal_'
'burl'
'bram'
'austens_'
'astound'
'arth'
'absolut'
'yos'
'willed_'
'ware'
'walla'
'unpre'
'traitor_'
'thirst_'
'thee_'
'teri'
'scanned_'
'rna'
'poison'
'overture_'
'okin'
'nity_'
'nger_'
'murky_'
'misrepresent'
'lure_'
'lad'
'knuckle'
'humani'
'grape'
'gid'
'gated_'
'enter'
'dino'
'cutt'
'comprehension_'
'cami'
'bullies_'
'bub'
'beasts_'
'astr'
'altering_'
'yco'
'yak'
'xx'
'viii_'
'usu'
'urges_'
'tagg'
'stilted_'
'soloist_'
'slowing_'
'rx'
'roy'
'patriarch'
'oblivious_'
'oacute_'
'nly_'
'newfound_'
'musings_'
'morphi'
'matthews_'
'map'
'loudly_'
'klu'
'jump'
'joe'
'ineffective_'
'harb'
'gos'
'gha'
'gea'
'flee_'
'evolves_'
'elin'
'curriculum_'
'craz'
'configured_'
'ceramic_'
'brook'
'bonding_'
'bash'
'avail_'
'arc'
'amd_'
'afterword_'
'adrenaline_'
'145'
'xed_'
'wellm'
'walsh_'
'ttle'
'tti'
'taped_'
'swing'
'soro'
'smok'
'rst'
'renting_'
'peg_'
'patriot_'
'overr'
'necklace_'
'nadi'
'mcla'
'lynd'
'liti'
'laurie_'
'joyous_'
'ising_'
'hl_'
'hemingway_'
'gag'
'fragments_'
'flak'
'extinction_'
'ensues_'
'enrich'
'drool'
'cua'
'cour'
'corner'
'bari'
'bank'
'450_'
'124'
'x5'
'whole'
'wf'
'thier_'
'theb'
'snoop'
'rai'
'particle_'
'owes_'
'obrien_'
'nava'
'munch'
'morti'
'mode'
'luck'
'lic_'
'leth'
'joa'
'gret'
'fundamentalist_'
'fr_'
'existential_'
'earl'
'e2'
'dunk'
'detergent_'
'cork'
'cookware_'
'compound'
'comcast_'
'cann'
'bandit'
'astute_'
'abd'
'240'
'1200_'
'vulgar_'
'vil'
'vii_'
'upper'
'unexplained_'
'teller_'
'sent'
'purposely_'
'pei'
'overc'
'nial'
'mics_'
'marginally_'
'kant'
'jude'
'instructive_'
'infuse'
'imaginable_'
'heartwrenching_'
'guidebook_'
'gim'
'garde'
'formati'
'flare_'
'demon'
'dealers_'
'cultivat'
'critici'
'cows_'
'conc'
'cil'
'carb_'
'cade'
'burger_'
'attain_'
'appreciates_'
'appliances_'
'annoyances_'
'accomp'
'weaver_'
'tipp'
'theres_'
'stefan'
'stadium_'
'sleeper_'
'slapstick_'
'reinstall'
'omissions_'
'nag'
'mysteriously_'
'mh'
'knobs_'
'kinks_'
'groan'
'exemp'
'enci'
'embarrassment_'
'edr'
'diffuse'
'devo'
'desert'
'contemp'
'compl'
'casing_'
'carriers_'
'ational_'
'assign_'
'affiliat'
'2gb_'
'212_'
'varieties_'
'spro'
's10'
'rve'
'roz'
'rote_'
'requiem_'
'reps_'
'pete'
'pasti'
'p3'
'newcomer_'
'murderers_'
'morr'
'minutes'
'lavi'
'ingi'
'grenade'
'gideon_'
'friedman_'
'exercise'
'ethereal_'
'dismissi'
'discrimination_'
'discharge_'
'depriv'
'dac'
'colla'
'civ'
'bragg'
'bold'
'attaches_'
'assault'
'arri'
'arist'
'value'
'trackpad_'
't1'
'spra'
'smudge'
'seventeen_'
's5_'
'refo'
'ova_'
'outweigh'
'organis'
'ological_'
'nco'
'lorr'
'kissed_'
'kag'
'jacob'
'ix'
'instill'
'illuminate_'
'hinges_'
'hatt'
'greet'
'fthe'
'fashion'
'elbow_'
'doo_'
'contend_'
'circum'
'caster'
'breasts_'
'boom'
'ass'
'211'
' !'
'whiny_'
'unavailable_'
'tingl'
'stranded_'
'sov'
'sine'
'retire_'
'rationaliz'
'proudly_'
'overbearing_'
'mystic_'
'maxwell_'
'mack'
'lime'
'kick'
'kaufman'
'interludes_'
'insects_'
'indulge'
'iii'
'guerr'
'grey'
'gilli'
'flop_'
'ently_'
'enabling_'
'dress'
'deborah_'
'clint_'
'addon_'
'uniqueness_'
'tst'
'torque_'
'tickets_'
'selfc'
'ricks_'
'rhino_'
'recline'
'poe'
'pani'
'ox'
'nasa_'
'lodge_'
'honors_'
'formatted_'
'fischer_'
'devoured_'
'devote_'
'carnival_'
'byrd'
'burgh_'
'assurance_'
'analys'
'amis'
'aja'
'35mm_'
'yi_'
'wolfe_'
'vy'
'villian'
'tick'
'term'
'staged_'
'smu'
'sept_'
'scientifically_'
'ropo'
'roar'
'retrieve_'
'prof'
'playable_'
'pio'
'pennsylvania_'
'orio'
'org_'
'nso'
'information'
'incu'
'imperfections_'
'imagin'
'gul'
'guer'
'governe'
'goto_'
'glam'
'gasp_'
'garland_'
'friends'
'fing_'
'find'
'finch'
'erth'
'dain'
'd3'
'corded_'
'consulting_'
'caffeine_'
'boogie_'
'barn_'
'argent'
'205'
'............................................'
'willi'
'walkers_'
'visionary_'
'ush'
'tica'
'sidebars_'
'shroud'
'seminal_'
's6'
'rse_'
'ritten_'
'renders_'
'posing_'
'outputs_'
'ogi'
'nerat'
'nct'
'mysticism_'
'moo'
'mell'
'legali'
'iy'
'hogan_'
'hk'
'felix_'
'feld_'
'divide'
'dishonest_'
'differentiat'
'dialog'
'counsel'
'connie_'
'collectorguideslines_'
'coincidences_'
'club'
'choc'
'chim'
'borat'
'bes_'
'assure'
'accompanies_'
'4a'
'240_'
'1015_'
'zn'
'woo_'
'webb'
'vanished_'
'tively_'
'switch'
'surrender'
'subscribe_'
'starl'
'soci'
'scratch'
'schizophreni'
'sap'
'sack_'
'porte'
'pam_'
'overtur'
'nit_'
'nam_'
'myers_'
'mado'
'length'
'keurig_'
'judgments_'
'joss_'
'irene_'
'gramm'
'godl'
'feed'
'fantasy'
'diva_'
'directi'
'credentials_'
'corrupted_'
'civilized_'
'baritone_'
'atheism_'
'atch'
'antly_'
'allison_'
'2011'
'zzi'
'winni'
'weiss_'
'vari'
'tris_'
'thin'
'tering_'
'rarity_'
'psychopath'
'phd_'
'opti'
'oco'
'ntin'
'moonlight_'
'monopoly_'
'ind_'
'inco'
'incentive_'
'impa'
'immersive_'
'french'
'etu'
'dupe'
'denouement_'
'changer_'
'cee'
'anger'
'amusement_'
'afr'
'ysi'
'worldly_'
'wondrous_'
'transformer_'
'summer'
'stupid'
'selfl'
'selfin'
'savage'
'respi'
'presume_'
'plas'
'objections_'
'ntia'
'nose'
'narnia_'
'mcm'
'level'
'imperative_'
'grave'
'gling_'
'failings_'
'etta_'
'ening_'
'ei_'
'eca'
'downsides_'
'chopped_'
'cae'
'banner_'
'atte'
'adapt'
'acknowledging_'
'802_'
'urn'
'truth'
'sus_'
'silliness_'
'selfpro'
'seam_'
'saf'
'rectif'
'raci'
'phile'
'paige_'
'onion_'
'noble'
'nay'
'mythos_'
'myth'
'mozarts_'
'keypad_'
'jana_'
'ipods_'
'hover'
'hak'
'fundamentals_'
'fret'
'florence_'
'fist'
'fellowship_'
'esto'
'equations_'
'drag'
'drac'
'delo'
'debbie_'
'cursor_'
'cough_'
'consciously_'
'cleansing_'
'cab_'
'ading_'
'1s_'
'132'
'!? _'
'witchcraft_'
'whore_'
'warri'
'uncanny_'
'tang'
'suburban_'
'steadily_'
'projection_'
'pervasive_'
'norah_'
'nether'
'intrude'
'inexplicably_'
'impro'
'humane_'
'homer_'
'fumbl'
'fasci'
'dud'
'doctrines_'
'disa'
'directory_'
'devastated_'
'despicable_'
'dean'
'dawn'
'counterpoint_'
'corsair_'
'convictions_'
'contender_'
'compress'
'bullet'
'bright'
'antivirus_'
'850'
'whistle_'
'venti'
'uto'
'usher'
'unveil'
'underscore'
'toggle_'
'syno'
'summarizes_'
'scor'
'rli'
'process'
'pid'
'patiently_'
'pabl'
'oth'
'oldschool_'
'motivate_'
'md_'
'marin'
'lund'
'laten'
'kelley_'
'intervals_'
'immerse_'
'hort'
'happenings_'
'hac'
'groupi'
'grim'
'god8217_'
'fluid'
'ept'
'enormously_'
'elp'
'discourage_'
'convict'
'comprised_'
'bev'
'ankle_'
'ait'
';..._'
'2t'
'yea_'
'wok'
'vinci_'
'tether'
'tero'
'techs_'
'superpower'
'ssions_'
'snot'
'scorching_'
'runn'
'rosi'
'resur'
'reproduced_'
'replaceable_'
'ramb'
'rake_'
'programmer_'
'priest'
'patriotic_'
'osed_'
'opera'
'noti'
'nipple'
'modi'
'lest'
'inside'
'holistic_'
'hmen'
'herb_'
'forewarned_'
'fisher'
'faw'
'erp'
'entrepreneur_'
'employer_'
'eastwood_'
'eart'
'doh'
'depre'
'crum'
'crises_'
'brenda_'
'blatantly_'
'activation_'
'5i'
'109'
'yan_'
'vega'
'unified_'
'tend'
'store'
'spl'
'skyr'
'simulat'
'scotch_'
'scarf'
'rome'
'rocket'
'rly_'
'ringing_'
'rett'
'relic'
'parab'
'ofs'
'nonb'
'muscular_'
'meandering_'
'lump'
'lu_'
'kea'
'inla'
'inherit'
'iers_'
'gnostic'
'glide'
'faithfully_'
'fah'
'depictions_'
'curved_'
'bumped_'
'builder_'
'arin'
'arabia_'
'approx_'
'alu'
'advisor_'
'addicts_'
'vitality_'
'superf'
'striving_'
'staggering_'
'sonica'
'shouting_'
'shot'
'sgt_'
'sevent'
'ror'
'reve'
'res'
'reis'
'reate'
'pumps_'
'praises_'
'porti'
'ower_'
'ov'
'outt'
'mortgage_'
'mare'
'lod'
'inhibit'
'hid_'
'hib'
'hens'
'halo'
'gum'
'estranged_'
'dresden_'
'contracts_'
'cindy_'
'chop'
'branded_'
'blaming_'
'yea'
'vd'
'urr'
'sweetheart_'
'subway_'
'strum'
'stalking_'
'soundtracks_'
'sorrow'
'sis'
'shakespeares_'
'reputable_'
'penchant_'
'occ'
'obligatory_'
'ntic'
'missionary_'
'meyers_'
'marr'
'johnsons_'
'jewels_'
'invo'
'freaks_'
'civili'
'ced'
'caption'
'blossom_'
'baptist_'
'atlantis_'
'amendment_'
'allinone_'
'???'
'610_'
'0mah_'
'winter'
'wink_'
'unpu'
'tsa'
'sounds'
'solidif'
'shaq_'
'seu'
'rint_'
'reu'
'replies_'
'plural'
'peaks_'
'nurses_'
'musc'
'migrat'
'matti'
'indicators_'
'inad'
'hera'
'gut'
'elders_'
'dien'
'cute'
'cry'
'boo_'
'8m'
'162'
'xvi'
'wyatt_'
'wry_'
'unca'
'tull'
'tr'
'tiv'
'slu'
'sarahs_'
'robbed_'
'publishe'
'prominently_'
'private'
'nasti'
'mv'
'mous'
'mire'
'manageable_'
'lyr'
'lark'
'kates_'
'jes'
'iod'
'hypo'
'hoyos_'
'herr'
'haw'
'hami'
'forged_'
'envi'
'edu'
'cuisine_'
'cubes_'
'cliff'
'cement'
'capa'
'bridge'
'belt'
'belonged_'
'awe'
'alexa'
'abdu'
'!!!!! _'
'weight'
'unte'
'unknow'
'toni'
't3'
'swipe_'
'scour'
'rust'
'retaining_'
'resonates_'
'pragmatic_'
'pr'
'pollution_'
'polit'
'pearls_'
'koh'
'joc'
'jans'
'itz_'
'inserting_'
'inflat'
'inept_'
'ild'
'idiotic_'
'icy_'
'gilmo'
'forth'
'forgiv'
'fanatic_'
'eber'
'crowds_'
'contradiction_'
'chil'
'cheri'
'bypass_'
'brett_'
'bewilder'
'bate'
'apro'
'410'
'wellrounded_'
'voters_'
'voodoo_'
'usc'
'unions_'
'understatement_'
'turbulent_'
'tuck_'
'transparency_'
'transl'
'topped_'
'thal'
'spine'
'sewn_'
'reprint_'
'religio'
'refrain_'
'putt'
'proce'
'posture_'
'olive'
'nue'
'nond'
'nationalist'
'nashville_'
'mores_'
'memoriz'
'lian'
'intersect'
'imaging_'
'illinois_'
'iel'
'hideous_'
'found'
'fleeting_'
'feld'
'enlist'
'doubles_'
'cosmetic_'
'constrain'
'coda_'
'capt'
'blindly_'
'astronom'
'advancing_'
'absurd'
'ythe_'
'wield'
'what8217_'
'villages_'
'vanessa_'
'untold_'
'unt_'
'translator_'
'transforms_'
'topping_'
'sug'
'stain'
'soap'
'sive'
'scient'
'rook'
'padd'
'overall'
'outb'
'nia'
'morris'
'manns_'
'jenkins_'
'illusions_'
'fulllength_'
'dup'
'digress_'
'deo'
'cw'
'cosmos_'
'contour'
'chom'
'brightly_'
'blackandwhite_'
'badass_'
'author8217_'
'aspirations_'
'ambi'
'willa'
'wile'
'vile_'
'vee'
'toll'
'tango_'
'sri'
'soooo_'
'simo'
'scat'
'sauce'
'r8217_'
'puc'
'petr'
'pepper'
'palette_'
'naming_'
'masquerad'
'lifea'
'leac'
'humanist'
'hu_'
'horrified_'
'geographic_'
'fringe_'
'erro'
'endeavors_'
'emerson_'
'directional_'
'culinary_'
'brian'
'beef'
'arbitrary_'
'apology_'
'apes_'
'almond_'
'yun'
'wiki'
'whale_'
'vali'
'turno'
'token_'
'tk'
'stion'
'sensuality_'
'selective_'
'rowling_'
'relat'
'pillows_'
'perceptive_'
'perc'
'ove_'
'ndu'
'national'
'masculine_'
'machine'
'lindsay_'
'lde'
'ific'
'hormon'
'hanks_'
'graphs_'
'genetics_'
'gangs_'
'exert'
'erh'
'dogma_'
'digs_'
'devotes_'
'detect'
'dane_'
'curiously_'
'coy'
'china'
'awardwinning_'
'ature'
'angelin'
'aces_'
'; '
'175'
'workaround_'
'winston_'
'whispers_'
'wesley_'
'vocalists_'
'tmobile_'
'sunn'
'sne'
'sms_'
'sib'
'screwing_'
'salo'
'rson_'
'relish_'
'ranked_'
'prolonged_'
'overboard_'
'olv'
'neph'
'modula'
'marcel'
'loans_'
'lending_'
'innoc'
'heap_'
'hamlet_'
'ento'
'eds_'
'discarded_'
'dann'
'criti'
'creep_'
'copi'
'cobra_'
'choruses_'
'cheerful_'
'capitalist_'
'busters_'
'blunder'
'balla'
'aviation_'
'arse'
'afo'
'adhd_'
'220_'
'vamp'
'swim'
'swamp_'
'surveillance_'
'substitute'
'spir'
'spen'
'spect'
'simple'
'sies_'
'scrutiny_'
'rus_'
'rm_'
'reed'
'number'
'nato'
'mortality_'
'jour'
'jed'
'je_'
'interr'
'hypnotic_'
'halfs'
'gunn'
'gav'
'foe_'
'farms_'
'exten'
'eter'
'ensuring_'
'eighteen_'
'dion'
'differing_'
'cris'
'crippl'
'congratulations_'
'confronting_'
'comm'
'cf_'
'brightest_'
'bent'
'ann'
'ancest'
'amu'
'verb'
'vei'
'vad'
'vacu'
'uninstall_'
'tenth_'
'taste'
'tart_'
'social'
'snowb'
'skirt_'
'sir'
'shame'
'seven'
'sear'
'rho'
'resign'
'replay'
'refer'
'rath'
'ohm'
'needles_'
'muffin'
'marries_'
'maca'
'lizzie_'
'lion'
'jug'
'icate'
'hue'
'haven8217_'
'handi'
'hana'
'gali'
'duc'
'disgr'
'dime'
'conju'
'collaborate'
'brill'
'bok'
'bann'
'bail'
'asin_'
'antonio_'
'acrobat'
'2g'
'yquot_'
'tati'
'survey'
'showcasing_'
'serum_'
'sandb'
'rations_'
'quent'
'pue'
'prevail_'
'poop_'
'pect'
'ody'
'objectively_'
'nobility_'
'itch_'
'hopelessly_'
'hope'
'hmm_'
'helme'
'hege'
'futures_'
'esthe'
'duplicate_'
'convent'
'condemn'
'collaborator'
'cloud'
'claus_'
'cerebral_'
'cemetery_'
'carpets_'
'calculat'
'bot'
'barto'
'babe'
'aspire_'
'arro'
'ani_'
'admitting_'
'abyss_'
'170'
'16th_'
'winc'
'wardrobe_'
'vh'
'trem'
'transcenden'
'trail'
'traditionally_'
'tidy_'
'sx'
'suspicions_'
'sql_'
'soa'
'snapshot_'
'shrin'
'persistence_'
'perish'
'pears'
'pagan'
'order'
'onth'
'oceans_'
'ntl'
'nietzsche_'
'maj'
'mais'
'liberalism_'
'lemon'
'laf'
'interpret'
'inau'
'improvise'
'harper'
'gera'
'gene'
'extrem'
'exhibits_'
'ernest_'
'elevate_'
'eenth_'
'displace'
'devour_'
'dashboard_'
'compiled_'
'budget'
'bookaholics_'
'beau_'
'appalling_'
'adopt'
'activists_'
'210_'
'16gb_'
'127'
'yre'
'wing'
'vy_'
'vand'
'undermine_'
'tween'
'trades_'
'tessa_'
'succumb'
'subc'
'strangle'
'simplest_'
'shields_'
'sein'
'scarred_'
'resort'
'ratt'
'quet'
'polyg'
'onal'
'ofc'
'lif'
'global'
'excessively_'
'endear'
'emulate_'
'dell'
'curv'
'chriss'
'chandler_'
'cate'
'bloat'
'average'
'atrocious_'
'append'
'ape_'
'ambivalen'
'3g'
'zion'
'traders_'
'supervis'
'sooooo'
'shortcuts_'
's7'
'reminders_'
'relentlessly_'
'reconsider_'
'rch'
'prong'
'pren'
'pervert'
'perus'
'obse'
'nting_'
'nonprofit_'
'mpa'
'lifechanging_'
'junkie_'
'jelly_'
'groom'
'g2'
'erson_'
'epit'
'entra'
'discouraged_'
'denomination'
'cutout_'
'crea'
'corma'
'compressor_'
'complete'
'comet'
'columns_'
'britt'
'away'
'anticlimactic_'
'allegro_'
'1m'
'whod_'
'versa'
'tame'
'tabl'
'societys_'
'serv'
'rotate'
'reincarnation_'
'regular'
'reggae_'
'pto'
'powder'
'pomp'
'parameters_'
'paint'
'pacifi'
'omet'
'multimedia_'
'laurel_'
'kenne'
'grate_'
'glis'
'freema'
'foll'
'drilled_'
'dove_'
'doubl'
'donn'
'detector_'
'consent_'
'cepti'
'boxe'
'boils_'
'arra'
'aren8217_'
'apprentice_'
'apath'
'activist_'
'165'
'worship'
'weak'
'vertically_'
'unn'
'trumpet'
'tread_'
'tant'
'synthesis_'
'susanna'
'scorn'
'rangers_'
'ramble'
'raft_'
'ptic'
'pokemon_'
'plugin_'
'peppered_'
'overdue_'
'overarching_'
'oos'
'oom_'
'oft_'
'neal_'
'nate'
'mineral_'
'mcgra'
'mats_'
'leopard_'
'jodi'
'humid'
'homer'
'hallmark_'
'dread'
'diagram_'
'debating_'
'crust_'
'bitten_'
'bend'
'agendas_'
'accomplishes_'
'underside_'
'translates_'
'stl'
'stereotyp'
'splash'
'spiral'
'skew'
'settlement_'
'sanctuary_'
'rothe'
'psychi'
'posta'
'pes_'
'oklahoma_'
'obli'
'lor_'
'kosher_'
'iter'
'implo'
'freshe'
'finances_'
'fav'
'exege'
'etc'
'epr'
'doubtful_'
'divisions_'
'dilemmas_'
'deed_'
'decay_'
'clair'
'chn'
'candid'
'burt_'
'babylon_'
'asm'
'abbreviat'
'3p'
'tuesday_'
'technolog'
'taunt'
'tactic_'
'scarlett_'
'sancti'
'ruct'
'rosetta_'
'roh'
'roaring_'
'repetiti'
'reid_'
'quot'
'pru'
'ported_'
'popul'
'pointer_'
'pits_'
'panic'
'owski_'
'nin_'
'morali'
'kentucky_'
'jd'
'ironi'
'instrumentals_'
'instructed_'
'induced_'
'indifference_'
'hurr'
'heats_'
'greasy_'
'freud_'
'enca'
'eling_'
'downs'
'dispute_'
'creepi'
'corpses_'
'closeup_'
'clinic_'
'bowie_'
'benedict_'
'arthur'
'anamorphic_'
'yer'
'vows_'
'tys_'
'turkish_'
'tine_'
'summari'
'subconscious_'
'splend'
'sharpening_'
'scarie'
'registration_'
'professional'
'practitioner_'
'piri'
'palestine_'
'obey_'
'mhz_'
'meteor'
'mart_'
'mage_'
'incur'
'hots'
'gn_'
'ghting_'
'gest'
'enberg_'
'elections_'
'digesti'
'defy_'
'cuti'
'cliched_'
'bottom'
'blanc'
'bk'
'baron_'
'balk'
'az_'
'autobiographical_'
'assertions_'
'alas'
'accusations_'
'absurdity_'
'xer'
'x2'
'wine'
'weighing_'
'volum'
'vaga'
'tract'
'timb'
'testi'
'support'
'submissive_'
'stream'
'shorten'
'scot'
'scam'
'rumor_'
'rousing_'
'rende'
'puzzled_'
'promo_'
'potty_'
'physicians_'
'oooo'
'offputting_'
'nova'
'ngo'
'mok'
'marco_'
'madame_'
'hooking_'
'heavyhanded_'
'harmless_'
'fiona_'
'fill'
'feathers_'
'ested_'
'erat'
'epic'
'disdain_'
'cult'
'catastrophe_'
'breville_'
'blake'
'anci'
'allegory_'
'alarms_'
'acid'
'2w'
'1949_'
'watering_'
'transpire'
'success'
'sq'
'spices_'
'skel'
'silence'
'sheen_'
'schr'
's1_'
'reissues_'
'reeves_'
'reconcil'
'psychotic_'
'perpetua'
'nvidia_'
'nome'
'nano'
'metro_'
'knox_'
'issi'
'inthe'
'ife'
'hich_'
'grove'
'grail_'
'geeks_'
'gardner_'
'forgets_'
'elliot_'
'economists_'
'dietary_'
'desolat'
'curri'
'culminate'
'convert'
'complementary_'
'command'
'citizen'
'cere'
'careless_'
'bole'
'bey'
'zol'
'viking_'
'town'
'spreads_'
'sicil'
'sharpen_'
'score'
'rigor'
'principals_'
'pinn'
'nitpick'
'niko'
'middleaged_'
'lubrica'
'launching_'
'isk'
'hoo_'
'goldberg_'
'feud'
'excelle'
'disappointments_'
'ddr'
'convinces_'
'cogni'
'cip'
'broaden'
'britney_'
'brat'
'berat'
'bem'
'asl'
'alis'
'alexs_'
'affirmation'
'219'
'would'
'winde'
'wack'
'vip'
'uncharted_'
'ulu'
'technica'
'swirl'
'stew'
'stature_'
'starf'
'snacks_'
'shri'
'rr'
'prompts_'
'oon'
'lyp'
'irrev'
'ind'
'gta_'
'gravel'
'gence_'
'fiercely_'
'dia_'
'density_'
'demoni'
'cynicism_'
'comi'
'clip'
'blond_'
'befriend'
'applause_'
'allergic_'
'192_'
'ween'
'umi'
'terror'
'stalled_'
'sper'
'spann'
'slices_'
'slash'
'rips_'
'riddled_'
'revere'
'reporters_'
'recharging_'
'prew'
'prea'
'posti'
'perr'
'patton_'
'occupa'
'multit'
'monstrous_'
'mica'
'majestic_'
'heap'
'hange'
'graphi'
'genu'
'gags_'
'exwife_'
'epe'
'drank_'
'descendants_'
'delving_'
'dangerously_'
'dad'
'crime'
'coven'
'caller_'
'bolt'
'anthropo'
'x6'
'vsky'
'usd'
'uac'
'transmitte'
'styling_'
'stumbles_'
'sprout'
'separates_'
'publici'
'preserving_'
'persevere'
'parenth'
'orphan_'
'oes_'
'nausea'
'multifaceted_'
'mommy_'
'lating_'
'lament_'
'krishna'
'kindles_'
'grandeur_'
'grac'
'gear'
'fourt'
'fiber'
'fas'
'ergonomic_'
'eleg'
'dey'
'deacute_'
'coding_'
'cigar'
'charlies_'
'biases_'
'assess_'
'aru'
'annes_'
'aes'
'143'
'waste'
'violation'
'veh'
'usp'
'upsta'
'undo_'
'stride'
'strain'
'relegated_'
'rek'
'prospects_'
'procedural_'
'perkins_'
'outr'
'orchestras_'
'oods_'
'numeric'
'notifi'
'neil'
'marching_'
'mandate'
'kok'
'kemp'
'johnn'
'integrat'
'guish'
'grotesque_'
'greene'
'gorilla_'
'godfather_'
'freedoms_'
'fr'
'final'
'femme_'
'enta'
'encr'
'ecos'
'dimin'
'departments_'
'deba'
'crystal'
'coolest_'
'contractor'
'consist_'
'completes_'
'chefs_'
'cavalry_'
'casti'
'boat'
'bloated_'
'bissell_'
'benefit'
'bassist_'
'avia'
'angled_'
'4star_'
'12v_'
'........_'
'yell_'
'wicked'
'tyr'
'tha_'
'tamp'
'tai_'
'stati'
'sparkle_'
'smiled_'
'skins_'
'rhod'
'rabbi'
'pronunciation_'
'predators_'
'plainly_'
'percussi'
'passport_'
'mote'
'manage'
'loves'
'loma'
'interviewe'
'hurl'
'heri'
'ether'
'ece'
'distractions_'
'conservati'
'chrom'
'chased_'
'cass_'
'bulls'
'baker'
'antin'
'6m'
'valle'
'texa'
'teresa_'
'splatter'
'spell'
'seekers_'
'rro'
'receivers_'
'preten'
'outrage_'
'oste'
'insiders_'
'hle'
'harge'
'hare'
'greeks_'
'gentile'
'genie_'
'galore_'
'fum'
'fireworks_'
'fari'
'ephe'
'enrich_'
'diablo_'
'dama'
'd4'
'constructive_'
'collage'
'cocaine_'
'circulat'
'carpet'
'cade_'
'assorted_'
'aking_'
'airf'
'280'
'153'
'10m'
'washers_'
'summation_'
'stressful_'
'sock_'
'smartphones_'
'sht'
'ricky_'
'retained_'
'quo'
'porc'
'ponder'
'nobrainer_'
'multipli'
'minerals_'
'mediat'
'mach'
'linking_'
'leisure_'
'holiness_'
'hijack'
'hav'
'filthy_'
'fili'
'favored_'
'epidemic_'
'empirical_'
'ela_'
'defin'
'custody_'
'crystals_'
'crumble'
'confus'
'comprehensi'
'commenting_'
'caricature_'
'burg'
'accessed_'
'?!?!'
'213'
'163'
'..........'
'zealand_'
'wins'
'wich'
'viewings_'
'underdeveloped_'
'tsu'
'thailand_'
'sunb'
'sorted_'
'soph'
'simmer'
'sampler_'
'reconstruction_'
'recessed_'
'programmers_'
'presum'
'postapocalyptic_'
'physiolog'
'permit_'
'overlo'
'ordina'
'nineteenth_'
'moul'
'moi'
'lid'
'intri'
'imac_'
'headlines_'
'hanna'
'gl'
'garcia_'
'ferri'
'fanboy'
'envision_'
'eighties_'
'dripping_'
'draining_'
'collects_'
'champion'
'bryn'
'blogspot_'
'billie_'
'bber'
'arp'
'analog'
'alphabet_'
'172'
'wig_'
'wannabe_'
'thero'
'taka'
'superheroes_'
'stunningly_'
'spellbinding_'
'skimmed_'
'sinful_'
'shifters_'
'revenue_'
'residence_'
'reading'
'rbi'
'pulp'
'phin'
'perpetual_'
'peli'
'pat'
'organi'
'onb'
'offbeat_'
'nma'
'ngh'
'murr'
'mourning_'
'mountain'
'masse'
'mariah_'
'maile'
'lack'
'illion'
'idol'
'iacute_'
'gott'
'goat'
'forma'
'fend'
'esteem_'
'elia'
'dakota_'
'conta'
'coarse_'
'chut'
'bib'
'authori'
'ather'
'alerts_'
'1933_'
'yield'
'xd'
'vacuuming_'
'transg'
'table'
'stalin'
'spades_'
'skull'
'sah'
'roomba_'
'resses_'
'purs'
'purp'
'psychiatrist_'
'proclaim'
'plotted_'
'party'
'orma'
'newbies_'
'n6'
'musi'
'mong'
'milo'
'micha'
'lous_'
'leash_'
'jem'
'iol'
'inn'
'inexplicable_'
'iam'
'homeschool'
'grating_'
'fin_'
'factor'
'dubbing_'
'diplomatic_'
'crist'
'conni'
'chickens_'
'camo'
'america'
'academia_'
'2000'
' :.'
'zer'
'wouldbe_'
'ukrainian_'
'tter_'
'transport'
'task'
'stack'
'seal'
'sch_'
'reverend_'
'rere'
'requisite_'
'ration'
'oza'
'overtly_'
'overpro'
'ords_'
'murdering_'
'missile_'
'millionaire_'
'hyped_'
'hustle'
'hardback_'
'fugitive_'
'frederick_'
'frail'
'expedit'
'esther_'
'eru'
'dth'
'divin'
'diction_'
'dese'
'dema'
'cric'
'const'
'conspir'
'confl'
'comfort'
'cafe_'
'bracelet_'
'bernie_'
'barry'
'anz'
'analyses_'
'adaptations_'
'5000_'
'zor'
'y1'
'volunteers_'
'utmost_'
'unsurp'
'unite_'
'twop'
'stam'
'spock_'
'shook_'
'reven'
'quart_'
'promi'
'piano'
'nies_'
'mistreat'
'ista'
'issue'
'intolera'
'goof'
'glossed_'
'excl'
'elizabeths_'
'electric'
'dune_'
'dodge_'
'dishon'
'disciplines_'
'defa'
'decently_'
'debt'
'carli'
'c1'
'brief'
'barbarian'
'balt'
'authentica'
'animat'
'ancer'
'alienat'
'zeb'
'wwi_'
'warts_'
'warsaw_'
'vere'
'vanish'
'ua_'
'thread'
'theres'
'tempera'
'teh'
'stin'
'stalk'
'stac'
'squares_'
'spectacle_'
'rni'
'prove'
'pencils_'
'passable_'
'ores_'
'oit'
'narrat'
'minimiz'
'lusion'
'lara_'
'lagg'
'irresponsible_'
'html_'
'hospitali'
'hoa'
'hindu_'
'hilt'
'gasket_'
'garc'
'gae'
'fric'
'franken'
'extremist'
'erik_'
'er8217_'
'ences_'
'dilute'
'confirms_'
'condescending_'
'coffin_'
'chemi'
'bondage_'
'bj'
'bbl'
'batter_'
'avenge'
'atural'
'arag'
'antiqu'
'allocat'
'abr'
'1a_'
'yeast_'
'worm_'
'ward'
'wandere'
'tshirt_'
'ters'
'tenta'
'starvation_'
'sooo_'
'scenes'
'rott'
'riff'
'regiment_'
'quantities_'
'proportion_'
'preceded_'
'plea_'
'pinch'
'nca'
'motion'
'manor_'
'kle_'
'jog'
'ject'
'jabra_'
'invariably_'
'intimately_'
'ingenuity_'
'hillary_'
'harbor'
'griffi'
'georgi'
'general'
'escap'
'eisenhower_'
'earthly_'
'dine'
'differs_'
'deft_'
'ctor'
'converting_'
'comingofage_'
'clark'
'candles_'
'burr_'
'blish'
'autonom'
'atop_'
'artillery_'
'anomal'
'??'
'zl'
'weird'
'unreal_'
'underwear_'
'theologians_'
'tex_'
'surpassed_'
'subm'
'stim'
'stained_'
'sideline'
'serviceable_'
'retailers_'
'refuge_'
'proverbial_'
'pondering_'
'peggy_'
'occup'
'morgan'
'mcd'
'madr'
'keel'
'jugg'
'ipads_'
'interpreter'
'ingp'
'graphical_'
'fullb'
'fuji_'
'franco'
'faint'
'edif'
'eddi'
'contaminat'
'chili_'
'cease_'
'blackw'
'alkaline_'
'adaptor_'
'2d'
'1c'
'very'
'vering_'
'ussr_'
'unrest'
'undone_'
'ull_'
'tranquil'
'tossing_'
'tm_'
'tene'
'sw_'
'sonia'
'sene'
'selfishness_'
'selfcon'
'robot'
'rash'
'projected_'
'presc'
'occur'
'nocturn'
'nei'
'migra'
'memb'
'marri'
'margo'
'jl'
'into'
'intellig'
'indigenous_'
'hayden_'
'gosh_'
'garg'
'g3'
'exf'
'divergent_'
'dispa'
'discerning_'
'decaden'
'conge'
'coax_'
'cleveland_'
'clay'
'citys_'
'byte'
'brushing_'
'brainwash'
'bonh'
'aton'
'anachronis'
'amine_'
'accessing_'
'155'
'yogi'
'warp_'
'vessel_'
'triple'
'teaser_'
'styli'
'starve'
'spotl'
'skeleton_'
'securing_'
'salin'
'ronic'
'robertson_'
'reti'
'replicat'
'quotation_'
'plays'
'paperwhite_'
'pain'
'mulle'
'mmer'
'mite'
'mathi'
'lyon'
'lakes_'
'isse'
'ises_'
'ipad'
'inspection_'
'ign'
'hert'
'floss'
'firewall_'
'firefight'
'fairies_'
'erika_'
'enem'
'eade'
'debu'
'dav'
'cyclo'
'continental_'
'cling_'
'bobbi'
'bayo'
'ashe'
'africanamerican_'
'advertisement_'
'4k_'
'yahoo_'
'wrists_'
'vowe'
'unemployment_'
'steaming_'
'simulate'
'sierra_'
'shortcoming_'
'shimmer'
'rran'
'rill'
'readership_'
'rare'
'panc'
'obtaining_'
'luth'
'interwoven_'
'hungarian_'
'graduated_'
'gie'
'genev'
'fuji'
'fateful_'
'facilitate_'
'facilitat'
'erk'
'ement'
'drown_'
'drills_'
'donovan_'
'diat'
'dealings_'
'cryptic_'
'creati'
'celebrating_'
'casa'
'bolster'
'agoni'
'aaaa'
'203'
'159'
'ylo'
'wiping_'
'villa'
'uprising_'
'unaf'
'tier'
'tche'
'taker'
'shadowy_'
'seeker_'
'roni'
'reprinted_'
'renewal_'
'raiders_'
'prude'
'peta'
'penn_'
'partic'
'muff'
'levi'
'lava'
'jolt'
'inventions_'
'impact'
'grounding_'
'grays'
'ghostly_'
'forehead_'
'flock_'
'filt'
'fascism_'
'elt'
'elliott_'
'dye'
'convers'
'chewing_'
'businessman_'
'bot_'
'binder_'
'aroma'
'advises_'
'advertise_'
'acle'
'168_'
'1002'
'wep'
'vouch'
'voted_'
'threaded_'
'stinks_'
'stice'
'smol'
'sands_'
'prosecutor'
'pos_'
'patric'
'ostr'
'oppressive_'
'ober'
'notori'
'mona'
'mom'
'meme'
'mele'
'macb'
'ller'
'internally_'
'immortality_'
'holly'
'hardship_'
'grab'
'glow'
'garment'
'fossil_'
'done'
'disb'
'crazed_'
'coauthor'
'clinic'
'clamps_'
'blurred_'
'bishops_'
'audition'
'204'
' :'
'youth'
'workable_'
'whistl'
'upt'
'tradeoff_'
'throwaway_'
'splinter'
'smelling_'
'smashing_'
'slash_'
'simpsons_'
'shocks_'
'shar'
'schumann_'
'scarc'
'sate'
'ripe_'
'ried_'
'rebirth_'
'quish'
'quat'
'ows_'
'osp'
'orne'
'naomi_'
'loom'
'kna'
'ingh'
'imitation_'
'hurdle'
'hep'
'hade'
'goose_'
'flourish_'
'fifties_'
'fem'
'eroi'
'eding_'
'dud_'
'drowned_'
'dle'
'diver'
'destin'
'deme'
'dco'
'cocoa_'
'choke_'
'carm'
'aer'
'5stars_'
'wedge_'
'utter'
'tri_'
'trays_'
'traded_'
'tempt'
'sweaty_'
'suspended_'
'stil'
'seminar'
'sem'
'risking_'
'rg_'
'reuni'
'rereleased_'
'rega'
'redd'
'protecti'
'pper'
'nee'
'microsd_'
'memphis_'
'mandel'
'liss'
'kd'
'js'
'jb'
'isle_'
'inflict'
'hopper_'
'heretic'
'harm'
'ginger'
'function'
'forests_'
'forensic_'
'ffo'
'empt'
'ean'
'drilling_'
'decisive_'
'consum'
'constitutes_'
'commod'
'belonging_'
'autob'
'aman'
'3a'
'youngsters_'
'unpa'
'treat'
'tec_'
'summed_'
'shea_'
'restless_'
'replaces_'
'pw'
'psychologically_'
'permitted_'
'passionately_'
'orgasm'
'orce_'
'kyo'
'kum'
'katy_'
'jose_'
'interact'
'intellectuals_'
'illogical_'
'hm_'
'gie_'
'folklore_'
'exhausting_'
'excursion'
'elie'
'diversion_'
'dictate_'
'departed_'
'd3_'
'crim'
'conservation_'
'concede'
'cherr'
'canta'
'blinking_'
'awaits_'
'alto_'
'2030_'
'voila_'
'tribulations_'
'thorn_'
'tena'
'spiders_'
'sentiments_'
'sacr'
'revi'
'retard'
'republi'
'repercussions_'
'profi'
'plato'
'paula_'
'miniature_'
'marion_'
'mania_'
'lable'
'kp'
'korn'
'insults_'
'initia'
'ingto'
'ing34_'
'impri'
'harlequin_'
'guess'
'graduation_'
'gos_'
'fore_'
'flex'
'fic_'
'esd'
'erse'
'ective'
'duction'
'dope_'
'detach'
'deconstruct'
'decker_'
'cruz_'
'cruiser'
'continual_'
'comedian_'
'chop_'
'chl'
'cheney_'
'catcher_'
'ater_'
'arni'
'arity_'
'annas_'
'yv'
'welles_'
'upwards_'
'unan'
'starred_'
'slug'
'simulation_'
'shi_'
'serpent'
'sadie_'
'rulers_'
'ridicul'
'rehears'
'rehash_'
'previews_'
'pixar_'
'pines'
'persua'
'perp'
'peck'
'option'
'offspring_'
'nazi'
'maurice_'
'liber'
'lad_'
'jimm'
'jail'
'ished_'
'ires_'
'hinder'
'heartstrings_'
'gardener'
'formulate'
'follow'
'eval'
'encore_'
'ello'
'earthquake_'
'disas'
'develop'
'curr'
'crippled_'
'compartments_'
'colleg'
'carters_'
'carolyn_'
'caregiver'
'callous'
'boa'
'bale'
'awfully_'
'assembling_'
'allusions_'
'accountable_'
'xxx'
'vocally_'
'uptodate_'
'ubiquitous_'
'trill'
'stella_'
'statistic'
'sophistication_'
'shortage_'
'scrolls_'
'scripted_'
'sava'
'royalty_'
'rigi'
'reap'
'rapture_'
'powerless_'
'poet'
'player'
'parc'
'observa'
'ntra'
'nke'
'network'
'neb'
'naga'
'likelihood_'
'jessie_'
'jars_'
'hollow'
'hamm'
'grandpa_'
'granddaughter_'
'ggi'
'frog'
'feminism_'
'faq'
'fall'
'exemplifie'
'entertainer'
'doable_'
'dispenser_'
'disneys_'
'dimm'
'conform_'
'comput'
'colonies_'
'colon'
'cache_'
'awaken_'
'anes'
'alex'
'alain_'
'adr'
'abuses_'
'abigail_'
'750_'
'133'
'yad'
'worka'
'whet'
'unintentionally_'
'syd'
'sponsor'
'shaken_'
'rodgers_'
'rewrit'
'postur'
'peda'
'neglect'
'marque'
'kas_'
'iteration'
'impos'
'imb'
'gourmet_'
'gma'
'gaze_'
'exci'
'evelyn_'
'epti'
'elites_'
'electronica'
'edith_'
'ctual'
'competiti'
'communion_'
'cking_'
'cie'
'charcoal_'
'champions_'
'carbohydrate'
'backlit_'
'axi'
'archival_'
'alternat'
'acti'
'\u\u\u\u'
'171'
'zk'
'yankees_'
'winds'
'verifi'
'toni_'
'thicken'
'tantalizing_'
'style'
'stark'
'stacked_'
'seminary_'
'selfdiscovery_'
'rudol'
'rows_'
'recreation_'
'phonic'
'onit'
'nutrients_'
'negatively_'
'moderniz'
'mende'
'macarthur_'
'isc_'
'innu'
'ica_'
'hg'
'fanatics_'
'evidenced_'
'esk'
'elan'
'edup_'
'ebu'
'duce'
'debut'
'danish_'
'chm'
'chinas_'
'captions_'
'brave'
'before'
'awn_'
'5g'
'1s'
'winge'
'warmed_'
'vre_'
'violins_'
'unme'
'unlock'
'unli'
'tentio'
'sweden_'
'similarity_'
'sharks_'
'shak'
'reminisc'
'redefine'
'probable_'
'pilates_'
'peripher'
'overp'
'onc'
'ocke'
'newb'
'mindful_'
'mattered_'
'mass'
'manly_'
'manic_'
'maci'
'lgi'
'koontz_'
'jk'
'isti'
'incl'
'ico'
'historic'
'fies_'
'eugene_'
'drumm'
'diam'
'devastation_'
'deficiencies_'
'decoration'
'cruis'
'counselor_'
'congregation_'
'cliffhangers_'
'centr'
'cellular_'
'bartok'
'bald_'
'assess'
'ance'
'accountability_'
': '
'250'
'152'
'117'
'yankee_'
'vist'
'troublesome_'
'squarely_'
'solder'
'software'
'sick'
'regr'
'refra'
'rae_'
'pta'
'prevail'
'postc'
'personalize'
'pelle'
'peep'
'patti_'
'ogy_'
'noi'
'narcissis'
'motown_'
'mint'
'maneuver'
'loveable_'
'legislation_'
'laboratory_'
'jerky_'
'ives_'
'intelligently_'
'imperialis'
'iend'
'hires_'
'forty'
'fogg'
'empowering_'
'eer_'
'ecosystem_'
'cr_'
'commendable_'
'claudi'
'carnage_'
'capr'
'calvin'
'biblio'
'berries_'
'barack_'
'atu'
'archetyp'
'anan'
'amati'
'alison_'
'20m'
'.!'
'zs'
'yod'
'wards_'
'unis'
'unc'
'twel'
'therapeutic_'
'stur'
'spared_'
'soma'
'scriptural_'
'rude'
'repent'
'redh'
'rasp'
'rains_'
'providers_'
'pitched_'
'patrol_'
'pari'
'organizer_'
'operatic_'
'multim'
'misfi'
'mid19'
'jakes_'
'interv'
'intell'
'indent'
'hardearned_'
'geek'
'export_'
'enchant'
'edc'
'dron'
'dissonan'
'deteriorate'
'denver_'
'darth_'
'cti'
'crossc'
'commission'
'clones_'
'chatter'
'chal'
'butterflies_'
'bench'
'bamb'
'ares'
'allen'
'advan'
'v2_'
'ux'
'usic'
'thrash_'
'textual_'
'sodo'
'skys_'
'segue'
'repo'
'ramifications_'
'presets_'
'pike_'
'nineteen'
'mood'
'monoton'
'milestone'
'meacute_'
'lst'
'libert'
'kn'
'interce'
'gift'
'fog'
'empowered_'
'emme'
'egr'
'eering_'
'eas_'
'damm'
'crunch_'
'cay'
'cassandra_'
'callie_'
'breach'
'bic_'
'andl'
'anat'
'amplifi'
'abandonment_'
' !! _'
'wrights_'
'whodunit_'
'whiskey_'
'webcam_'
'vaughan_'
'ury_'
'tubing_'
'trist'
'trimming_'
'thy'
'thrill'
'surpasses_'
'superi'
'sour'
'slew_'
'shove_'
'sever'
'seep'
'revisited_'
'resent_'
'reck'
'racks_'
'psych'
'prophecies_'
'playboy_'
'perfu'
'miserably_'
'milton_'
'microfiber_'
'melodi'
'mcna'
'mcma'
'lurk'
'london'
'lease_'
'lact'
'koe'
'justif'
'hottest_'
'homicide_'
'haired_'
'grill'
'evo_'
'evaporat'
'equot_'
'elisa'
'eave'
'dylans_'
'dissent'
'dissapointed_'
'congr'
'chrono'
'chock_'
'chant_'
'chalk_'
'cellphone_'
'cancel'
'borde'
'benef'
'baddie'
'avers'
'aster'
'aste_'
'alabama_'
'yda'
'xle'
'wom'
'viva'
'victor'
'ulti'
'uffe'
'trie'
'terminator_'
'slapped_'
'shattering_'
'servi'
'sdi'
'rage'
'quest'
'pric'
'portuguese_'
'phases_'
'opposites_'
'olor'
'nns_'
'nex'
'monologue_'
'monog'
'merge_'
'listen'
'lighten_'
'lexi_'
'jama'
'jak'
'iris'
'intra'
'illumination_'
'hock'
'harl'
'hacke'
'faction_'
'ews_'
'esm'
'empires_'
'emergence_'
'ebe'
'deploy'
'date'
'culture'
'crew'
'conduc'
'cker_'
'citations_'
'bricks_'
'bitt'
'bidd'
'assu'
'antio'
'advancement_'
'aacute_'
'139'
'126'
'waite'
'vaughn_'
'ural_'
'unabridged_'
'throw'
'surgeon_'
'spoton_'
'scar_'
'rton_'
'rode_'
'rejoi'
'puls'
'pree'
'povs_'
'overwhelm_'
'nomin'
'moe'
'm2'
'lunch'
'lovin_'
'karate_'
'headquarters_'
'handlebar'
'feud_'
'etal_'
'enhancing_'
'dislo'
'd82'
'coro'
'corel_'
'conso'
'circulation_'
'capitalize'
'canons_'
'cani'
'buzzing_'
'baltimore_'
'badge'
'142'
'wre'
'whoop'
'voya'
'visitor_'
'transformation'
'tchaikovsky_'
'stabilization_'
'sharply_'
'selfcentered_'
'scol'
'saun'
'rmed_'
'revo'
'retir'
'renditions_'
'remar'
'punish_'
'prank'
'piet'
'penetrat'
'overload_'
'onesided_'
'oftentimes_'
'nod'
'micros'
'markings_'
'm5'
'lowering_'
'lian_'
'lewis'
'lef'
'koch_'
'keyness_'
'invalid'
'intervene'
'iac'
'hyde_'
'hint'
'hindu'
'hapter_'
'handwrit'
'hallow'
'gener'
'franci'
'fda_'
'fara'
'facilities_'
'f8'
'epiphany_'
'enlarge'
'engl'
'downtown_'
'diversi'
'derri'
'deprived_'
'deform'
'coup'
'cations_'
'caste'
'carr'
'believability_'
'adam'
'activat'
'7200'
'5c'
'519'
'2i'
'253'
'2010'
'vable_'
'undu'
'suk'
'steward'
'skepticism_'
'sian_'
'selen'
'sansa_'
'ready'
'pleasurable_'
'overpower'
'orthodoxy_'
'noel_'
'nbc_'
'monument_'
'maxi'
'lessthan'
'lessen'
'latter'
'kristin'
'isle'
'interfere'
'illustrator_'
'hones'
'financ'
'educat'
'decreas'
'dare'
'conr'
'complains_'
'brea'
'blogger_'
'bleach_'
'blanks_'
'yon_'
'whirlwind_'
'ways'
'veer'
'urt'
'ued_'
'tura'
'trader_'
'timber'
'taxi_'
'sthe'
'settles_'
'scramble'
'rso'
'roasted_'
'rga'
'reformat'
'quintessential_'
'quali'
'purists_'
'otic'
'orchestrated_'
'oprah_'
'oppose_'
'northwest_'
'moc'
'matic_'
'mall'
'logist'
'ledo'
'kou'
'guns'
'grunt'
'gregor'
'greens'
'gina_'
'fullsize'
'franz_'
'ford'
'fluor'
'fleet'
'filing_'
'exaggeration_'
'eed'
'doe'
'disconcerting_'
'dhc'
'dazzle'
'dae'
'crusade_'
'consol'
'confessi'
'characteris'
'cg_'
'brevity_'
'bipolar_'
'aust'
'ades_'
'610'
'11th_'
'115'
'zing'
'yup_'
'whims'
'unfu'
'umin'
'udes_'
'tickle'
'tainted_'
'stru'
'skinne'
'search'
'rebellious_'
'raf'
'procr'
'personal'
'pathway'
'otr'
'orm'
'obesity_'
'macabre_'
'loft'
'llar'
'lement'
'kaplan_'
'interc'
'inc'
'hedge'
'hards'
'gla'
'gale'
'freed'
'forrest_'
'fonts_'
'fluen'
'flame'
'fiend'
'features'
'fated_'
'enli'
'edged_'
'devious_'
'daz'
'cys'
'cutscenes_'
'crammed_'
'cora'
'copious_'
'condemn_'
'clockwork_'
'beati'
'barbi'
'ao_'
'anchor'
'affi'
'acquiring_'
'5a'
'wording_'
'whine'
'usel'
'unreasonable_'
'une_'
'tioni'
'thoughts'
'terrif'
'superb'
'summary'
'stooges_'
'stically_'
'steins_'
'spontane'
'salesman_'
'role'
'rifles_'
'resta'
'rename'
'regrettabl'
'recap_'
'rame_'
'payne_'
'osla'
'mantra_'
'mace'
'intrusive_'
'interchangeable_'
'incred'
'gunfight'
'gigs_'
'fuse'
'fires'
'ented_'
'earc'
'dispel'
'devi'
'determines_'
'descende'
'carc'
'capric'
'belli'
'appointment_'
'annoyingly_'
'allegedly_'
'aliz'
'aine'
'105'
'zat'
'x2_'
'villagers_'
'variables_'
'typed_'
'tted_'
'theori'
'testimoni'
'stems_'
'spie'
'songb'
'smoked_'
'rory_'
'roast'
'rejoice_'
'recomend'
'quilt_'
'quaint_'
'puppets_'
'preci'
'posse'
'photographed_'
'ovs'
'oly'
'oat_'
'nun_'
'morel'
'midtempo_'
'marl'
'macro'
'liter'
'kma'
'inventi'
'ingame_'
'incon'
'icti'
'iba'
'hump'
'honor'
'henc'
'hearts'
'handc'
'hammers'
'generosity_'
'faci'
'eloquently_'
'electron'
'duets_'
'dove'
'document'
'dans_'
'constr'
'conquered_'
'compromises_'
'commi'
'columbus_'
'cocktail_'
'clipped_'
'classmates_'
'cita'
'cci'
'carp'
'bers'
'bamboo_'
'appea'
'verti'
'udd'
'tops'
'sunrise_'
'sunglasses_'
'strands_'
'spew'
'songs'
'shil'
'rund'
'recommend'
'purchasers_'
'progressi'
'proceeded_'
'pies_'
'pell'
'outlandish_'
'nuns_'
'naxos_'
'minigame'
'lung_'
'lma'
'ldi'
'introspection_'
'inou'
'imer'
'ield_'
'grie'
'fif'
'fathom_'
'eureka_'
'enamored_'
'editor'
'duo'
'doin'
'dition'
'd5'
'cone'
'compile'
'century'
'brook_'
'blaze_'
'benchmark_'
'appre'
'amaze_'
'algebra_'
'aiden_'
'agitat'
'acquaintance_'
'1935_'
'1800s_'
'wid'
'vec'
'tres'
'starcr'
'sobr'
'rer'
'razer_'
'preservation_'
'preceden'
'powerhouse_'
'peel'
'participated_'
'paro'
'pamela_'
'olu'
'mmi'
'mede'
'leveling_'
'josie_'
'jewel'
'hutch'
'guil'
'frighten'
'follower_'
'exto'
'essen'
'erns'
'e3'
'disadvantage_'
'delan'
'dam_'
'cong'
'cohe'
'bursting_'
'beast'
'artist'
'appointed_'
'andf'
'ander_'
'alarm'
'136'
'wski_'
'victories_'
'vader_'
'targeting_'
'sol_'
'sfor'
'separating_'
'sans'
'rosie_'
'restrain'
'recollections_'
'rance_'
'psalms_'
'probe_'
'plex'
'pk'
'pickle'
'ocr'
'objectivity_'
'nne_'
'mpe'
'mism'
'meno'
'lift'
'ixe'
'insufficient_'
'hawkins_'
'gert'
'fritz_'
'foli'
'fingernail'
'fati'
'fac'
'extracti'
'exquisitely_'
'exco'
'eliza_'
'drum'
'dicke'
'defer'
'daytime_'
'clad_'
'bst'
'breaka'
'blemish'
'basti'
'ambassador_'
'allot'
'aftermarket_'
'7d'
'1080'
'!!  _'
'widowe'
'verd'
'userfriendly_'
'urse'
'tempos_'
'taf'
'stripes_'
'stab'
'ssa_'
'spun_'
'sporadic'
'soren'
'sleepy_'
'siz'
'situation'
'senseless_'
'sdhc_'
'sass'
'sailors_'
'robe'
'rma'
'riveted_'
'period'
'participating_'
'ooking_'
'oga'
'oct'
'mongol'
'meander'
'mce'
'loosing_'
'lenin'
'iner_'
'ift'
'ido_'
'herbal_'
'hazel_'
'godly_'
'gm_'
'gender'
'falcon_'
'etical'
'elaborate'
'drifte'
'distill'
'detour'
'damien_'
'cracker_'
'confines_'
'coal'
'attracts_'
'afghan'
'650_'
'5s'
'501'
'320'
' ??'
'y82'
'weekends_'
'weeds_'
'wages_'
'vigorous_'
'ub_'
'torm_'
'tipping_'
'summaries_'
'storyboard'
'ssh'
'splits'
'snugly_'
'shortest_'
'roma'
'rise'
'ringer_'
'reproduce_'
'packet_'
'omnip'
'nutritio'
'nub'
'nonsensical_'
'momm'
'misspell'
'maverick'
'masterwork'
'lent'
'inflicted_'
'infidelity_'
'infatuat'
'ighted_'
'hess'
'gould_'
'geri'
'fixture_'
'filtering_'
'exams_'
'endorsement_'
'dystopia'
'doris_'
'dha'
'demeanor_'
'crews_'
'counterin'
'childlike_'
'chatt'
'cair'
'buen'
'beb'
'autoc'
'assignments_'
'actua'
'1520_'
'yns_'
'yawn'
'xxxxx'
'undy'
'tp_'
'solitude_'
'shopper'
'shah'
'sfi'
'seeth'
'santi'
'rina_'
'regenerat'
'refugees_'
'reacted_'
'pse_'
'opt'
'ocd_'
'musta'
'menu'
'meni'
'massachusetts_'
'kathleen_'
'jumble'
'iza'
'interp'
'inspir'
'illuminated_'
'hymn_'
'humming_'
'huck'
'herman_'
'harvest'
'generates_'
'fowl'
'fight'
'educators_'
'diy_'
'curi'
'cuddl'
'ciat'
'cen'
'calv'
'appreciating_'
'antennas_'
'anecdotal_'
'andro'
'advertise'
'9733_'
'919'
'vert'
'tup'
'trop'
'tious_'
'throat'
'stifl'
'sophomore_'
'sluggish_'
'slack'
'sculpture'
'satan'
'rods_'
'rhapsody_'
'revolt_'
'reflex'
'rable_'
'programmable_'
'pero'
'penn'
'pecti'
'patch'
'pages'
'openness_'
'oneliners_'
'nagging_'
'mpos'
'motivational_'
'mons'
'mma_'
'meh'
'matured_'
'lev'
'leb'
'igan_'
'hiss'
'heroin_'
'herb'
'fragment'
'forecast'
'foes_'
'ethan'
'eled_'
'drape'
'dental_'
'dence_'
'critter'
'clive_'
'chit'
'cathy_'
'cated_'
'bubbl'
'automo'
'augh'
'ask'
'alert'
'albert'
'accommodati'
'64bit_'
'105_'
'...  _'
'!!!!!!!'
'zzle'
'yearn'
'xeno'
'wilk'
'wholesome_'
'weh'
'underline'
'transp'
'transcription'
'transaction_'
'tink'
'thirst'
'thick'
'terre'
'templates_'
'tacked_'
'synth'
'stress'
'splitting_'
'snapping_'
'segregat'
'sabotage_'
'reconnect'
'ramblings_'
'pump'
'preschool'
'perch'
'onist'
'noveli'
'negro'
'nden'
'moan'
'lester_'
'kami'
'irrep'
'inward_'
'immortals_'
'illy'
'hott'
'happy'
'gabriel'
'fract'
'fam'
'expound'
'expire'
'erio'
'eau'
'dissatisfied_'
'disney'
'cruel'
'costco_'
'chow'
'bump'
'boll'
'bali'
'auc'
'agh'
'abe_'
'30m'
'wrinkles_'
'vix'
'transactions_'
'tackling_'
'spills_'
'spears_'
'season'
'rusty_'
'resourceful_'
'remedies_'
'regu'
'purge'
'proponent'
'nsk'
'ngin'
'neighbour'
'myo'
'mutant_'
'muffled_'
'mediterranean_'
'maniac'
'magellan_'
'lx'
'losers_'
'lenno'
'lavish_'
'khz_'
'jets_'
'iranian_'
'impu'
'hoy'
'hateful_'
'generating_'
'gat'
'frenzy_'
'foray_'
'exploding_'
'expenses_'
'erge'
'epis'
'enthusiastically_'
'dha_'
'customizable_'
'cursing_'
'chores_'
'chicks_'
'chant'
'aus_'
'arrange_'
'apar'
'ampe'
'ama_'
'alluring_'
'agile_'
'100m'
'vik'
'unraveling_'
'twenties_'
'transition'
'tone'
'thoughtfully_'
'taut_'
'tans'
'sox_'
'sipp'
'shutting_'
'sanders_'
'rond'
'rator'
'predicament_'
'predi'
'plantronics_'
'photos'
'muse'
'magna'
'lte_'
'ivan'
'ister_'
'intuit_'
'infr'
'inacc'
'improv'
'hardbo'
'flore'
'eable_'
'dominates_'
'dislikes_'
'dex_'
'croft_'
'corb'
'coma_'
'challenge'
'cato_'
'bbe'
'bana'
'antim'
'allens_'
'about'
'wellin'
'vb'
'texting_'
'tage_'
'tacky_'
'strawberry_'
'skips_'
'santo'
'righteousness_'
'recom'
'rapt'
'rally_'
'prio'
'otherworldly_'
'onate'
'munic'
'monkeys_'
'mile'
'jims_'
'italics_'
'ipe'
'ident'
'hobbit_'
'hiv'
'gallons_'
'ferr'
'effi'
'downstairs_'
'dissect'
'darwins_'
'critiques_'
'covert'
'coupl'
'connect'
'coil_'
'coexist'
'booksh'
'bean'
'arose_'
'archeolog'
'aerial_'
'adher'
'50mm_'
'176'
[...]
